<unk>	0
<s>	0
</s>	0
▁	-2.63001
?	-4.26923
▁-	-4.36598
,	-4.52344
的	-4.72763
.	-4.96267
了	-5.0594
!	-5.15519
...	-5.23726
我	-5.49158
▁我	-5.51882
你	-5.59088
▁你	-5.65544
ที่	-5.65937
s	-6.03087
นะ	-6.03968
cH	-6.05923
是	-6.06334
▁คุณ	-6.08374
ได้	-6.08497
แล้ว	-6.08717
▁ฉัน	-6.11638
มา	-6.11715
ฉัน	-6.11986
คุณ	-6.12203
ไป	-6.13321
'	-6.1832
吗	-6.18427
ของ	-6.22244
不	-6.27073
เป็น	-6.29867
在	-6.30748
他	-6.31505
人	-6.32073
น	-6.32746
มัน	-6.35602
เลย	-6.40103
有	-6.4304
ให้	-6.47732
จะ	-6.48759
▁ผม	-6.51354
2	-6.52247
▁และ	-6.52335
ส	-6.52453
ว่า	-6.53075
เขา	-6.53643
ผม	-6.55384
อยู่	-6.55524
เธอ	-6.56922
ใน	-6.58157
▁ไม่	-6.62801
▁{\	-6.63
ม	-6.63085
มี	-6.63729
上	-6.64845
。	-6.65044
吧	-6.65336
▁他	-6.65696
กับ	-6.6628
一	-6.66719
我们	-6.67009
ไม่	-6.67718
เธ	-6.68981
ก	-6.69445
来	-6.70546
นี้	-6.71335
กัน	-6.7298
F	-6.73031
▁我们	-6.73645
啊	-6.75221
会	-6.75589
▁เรา	-6.77029
111111}	-6.77772
ๆ	-6.77906
ทํา	-6.78292
▁แต่	-6.78358
t	-6.78375
要	-6.79379
她	-6.79506
去	-6.79579
ง	-6.79835
说	-6.80985
▁เธอ	-6.81482
ด	-6.82329
นี่	-6.82534
好	-6.83684
""	-6.85226
到	-6.85245
ด้วย	-6.85556
▁มัน	-6.86525
▁เขา	-6.86961
和	-6.87029
ไม่ได้	-6.87783
เรา	-6.87895
就	-6.88443
เหรอ	-6.8901
ก็	-6.92657
อะไร	-6.93155
▁you	-6.9317
▁I	-6.93409
cHFFFFFF	-6.93443
ล	-6.93925
ตัว	-6.94484
การ	-6.94487
▁ใช่	-6.95739
}{\3	-6.9724
บ	-6.97497
得	-7.00244
นาย	-7.00621
想	-7.0093
▁นาย	-7.00936
呢	-7.0133
大	-7.01717
▁the	-7.03543
ท	-7.03965
ดี	-7.04536
คน	-7.05669
ครับ	-7.06235
เน	-7.06994
และ	-7.07165
都	-7.07289
过	-7.07343
下	-7.07791
มาก	-7.08677
▁不	-7.08891
ล่ะ	-7.08961
ค	-7.09046
สิ	-7.09569
อีก	-7.11091
▁แล้ว	-7.12058
..	-7.1293
很	-7.12947
这	-7.14017
能	-7.15351
什么	-7.1565
จาก	-7.1578
y	-7.1604
子	-7.17065
ย	-7.18615
ว	-7.18691
里	-7.19291
เรื่อง	-7.20055
▁to	-7.20659
ร	-7.21304
ดู	-7.22375
你的	-7.22507
ความ	-7.23488
▁她	-7.24444
▁"	-7.24513
▁这	-7.25066
那	-7.25207
被	-7.25288
ต้อง	-7.25492
ไว้	-7.25667
ั	-7.28436
他们	-7.28823
一个	-7.29872
出	-7.30868
做	-7.31237
ต	-7.31862
น่ะ	-7.32224
▁a	-7.3286
นั่น	-7.34038
n	-7.34894
斯	-7.34911
m	-7.36491
点	-7.37148
รู้	-7.39142
นั้น	-7.39528
\	-7.40054
把	-7.40342
看	-7.40658
ของคุณ	-7.41405
手	-7.418
re	-7.41802
"""	-7.42081
{\4	-7.4237
พูด	-7.42761
ก่อน	-7.43348
我的	-7.43828
走	-7.44424
小	-7.44542
ไหม	-7.455
这个	-7.45834
打	-7.46186
c	-7.46269
ป	-7.46619
▁那	-7.47335
着	-7.48117
ค่ะ	-7.4813
▁ที่	-7.48287
用	-7.48292
ลูก	-7.49987
▁โอเค	-7.49991
หรอก	-7.50467
คือ	-7.50547
ถูก	-7.50663
a	-7.51081
เจ้า	-7.51915
地	-7.52021
ของฉัน	-7.52076
不是	-7.53017
个	-7.53029
对	-7.53249
ห	-7.53812
"	-7.5453
也	-7.54787
บอก	-7.54959
ข้า	-7.55099
น่า	-7.55763
เอง	-7.55893
หา	-7.56004
ตาย	-7.56852
死	-7.57093
事	-7.57137
ing	-7.57396
d	-7.58016
▁ถ้า	-7.58611
没	-7.58638
▁他们	-7.58762
ยัง	-7.58874
中	-7.5921
เ	-7.59957
▁ข้า	-7.60119
知道	-7.60157
)	-7.60179
ทาง	-7.60432
的人	-7.61295
อ	-7.61327
กําลัง	-7.61577
r	-7.61955
แม่	-7.62266
มั้ย	-7.62316
没有	-7.62535
▁นี่	-7.62759
▁但	-7.63551
หรือ	-7.64582
อย่าง	-7.64998
คิด	-7.65408
ถึง	-7.65741
งาน	-7.66062
พวกเขา	-7.66259
พ่อ	-7.66843
เห็น	-7.67257
ที่จะ	-7.67976
▁โอ้	-7.6818
e	-7.68258
่	-7.6833
ช	-7.68428
ขึ้น	-7.68646
จริง	-7.69333
1	-7.69533
▁มี	-7.69701
ใช้	-7.6974
เอา	-7.70008
	-7.70251
▁是	-7.70442
ออก	-7.71247
家	-7.71479
	-7.71569
เข้า	-7.71868
自己	-7.72136
▁อย่า	-7.72264
心	-7.7239
开	-7.72549
克	-7.73032
天	-7.73345
000000}	-7.73539
จริงๆ	-7.74656
再	-7.75311
时	-7.75359
你们	-7.75518
้	-7.76274
▁it	-7.76277
特	-7.76438
德	-7.76619
เจอ	-7.77195
年	-7.77478
就是	-7.77552
后	-7.77558
ลง	-7.7762
แก	-7.78041
还	-7.78061
ร์	-7.78856
ฟ	-7.79223
头	-7.79492
多	-7.79534
ช่วย	-7.79668
ต่อ	-7.80079
▁"""	-7.80621
หน้า	-7.8154
說	-7.81698
อยู่ใน	-7.82014
拉	-7.82277
▁ก็	-7.82303
ต้องการ	-7.82309
▁ฉันจะ	-7.82381
从	-7.82583
ใจ	-7.82746
▁of	-7.83082
▁เฮ้	-7.83196
▁别	-7.83199
▁พ่อ	-7.83578
行	-7.83578
可以	-7.84149
先生	-7.84306
ed	-7.8436
尔	-7.85108
▁พวกเขา	-7.85317
▁你们	-7.8576
为	-7.86935
它	-7.87094
前	-7.87676
來	-7.87834
會	-7.87918
:	-7.88788
แค่	-7.88862
หน่อย	-7.89095
	-7.8912
er	-7.89237
รับ	-7.89474
▁ใน	-7.89545
▁...	-7.90383
เล่น	-7.91657
ชื่อ	-7.91732
{\3	-7.91805
ไม่ใช่	-7.92198
▁好	-7.92336
太	-7.92349
ส่ง	-7.9237
▁好吧	-7.9253
嗎	-7.92612
มือ	-7.92773
▁是的	-7.93039
▁that	-7.93148
o	-7.93439
车	-7.93487
可	-7.93559
พวก	-7.93653
ละ	-7.93677
▁เจ้า	-7.9421
ของเรา	-7.95242
บอกว่า	-7.956
▁这是	-7.96067
ทํางาน	-7.96087
ใคร	-7.96374
跟	-7.96521
▁ๆ	-7.96688
生	-7.97747
▁in	-7.97775
▁""	-7.97865
现在	-7.97895
ไม่มี	-7.97932
别	-7.97998
吃	-7.99097
▁me	-7.99137
▁哦	-7.99227
i	-7.9944
I	-7.99565
คิดว่า	-8.00037
ท่าน	-8.00147
ตา	-8.00206
▁(	-8.00377
ผู้	-8.00417
▁ไป	-8.00482
▁แม่	-8.005
อยาก	-8.00658
比	-8.00718
ชอบ	-8.00868
คง	-8.00942
เด็ก	-8.0101
快	-8.01149
หนึ่ง	-8.01226
ซะ	-8.01232
带	-8.01283
ที่นี่	-8.01422
202020}	-8.01704
บ้าน	-8.01911
▁现在	-8.02402
爱	-8.02452
之	-8.02466
ใหม่	-8.02588
无	-8.03067
回	-8.03072
▁在	-8.03213
叫	-8.03217
▁นั่น	-8.03221
รอ	-8.03355
	-8.04021
最	-8.04513
ชั้น	-8.04564
发	-8.04606
▁ทําไม	-8.04694
รัก	-8.05302
ทําอะไร	-8.05318
รถ	-8.05392
·	-8.05575
ฆ่า	-8.0577
已经	-8.06081
in	-8.06096
	-8.06504
ทั้งหมด	-8.06519
▁我是	-8.06673
เงิน	-8.07038
不会	-8.07045
l	-8.07468
le	-8.07688
พ	-8.07806
利	-8.07823
ซิ	-8.07959
}{\4	-8.08269
见	-8.08544
一下	-8.08554
-	-8.0871
แน่	-8.09028
หรอ	-8.0912
老	-8.09181
们	-8.0928
จ	-8.09347
al	-8.09461
ไง	-8.09541
น้ํา	-8.09627
เพื่อ	-8.09737
ส์	-8.09843
ที	-8.10118
ยา	-8.10162
需要	-8.102
	-8.10208
ตาม	-8.10757
▁我想	-8.109
又	-8.11147
成	-8.1117
_	-8.11512
ar	-8.11572
สามารถ	-8.11731
▁เอา	-8.11811
当	-8.11988
คะ	-8.12122
▁如果	-8.12143
▁快	-8.12224
他的	-8.12273
กิน	-8.12687
住	-8.12716
听	-8.12817
ลา	-8.12856
▁แก	-8.12895
真	-8.13332
u	-8.13913
กลับมา	-8.13939
该	-8.13972
▁我們	-8.14079
ซ	-8.1444
找	-8.14483
长	-8.14756
▁งั้น	-8.14824
ของเขา	-8.15269
รู้ว่า	-8.15332
才	-8.1537
k	-8.15393
ตัวเอง	-8.15622
ll	-8.157
ทุกคน	-8.15879
▁嘿	-8.15889
更	-8.15975
วัน	-8.16034
先	-8.16188
สําหรับ	-8.16215
我們	-8.16287
▁หรือ	-8.16574
▁and	-8.16739
面	-8.16752
给我	-8.16843
▁什么	-8.17032
▁จะ	-8.17284
เคย	-8.17469
▁c	-8.17965
开始	-8.18026
钱	-8.18195
这样	-8.18223
	-8.18392
รา	-8.18393
เหมือน	-8.1848
หนู	-8.18578
C	-8.18731
h	-8.19037
▁คน	-8.1913
เพื่อน	-8.19527
เสีย	-8.19673
▁ขอบคุณ	-8.20024
an	-8.20141
那个	-8.20194
ฟัง	-8.20274
พวกเรา	-8.20296
▁เพราะ	-8.20353
力	-8.20381
一样	-8.2055
หัว	-8.20649
เค้า	-8.20704
ออกไป	-8.21073
ะ	-8.21205
身	-8.21248
▁我知道	-8.21544
▁S	-8.21545
自	-8.21572
เกี่ยวกับ	-8.21764
▁we	-8.21965
A	-8.22038
给	-8.22199
拿	-8.22239
ขอ	-8.22241
▁ตอนนี้	-8.22589
者	-8.22903
▁就	-8.23173
▁我要	-8.23264
เป็นคน	-8.23339
ที่สุด	-8.2334
กว่า	-8.23421
▁เพื่อ	-8.23671
▁มันเป็น	-8.23714
▁is	-8.23729
▁但是	-8.23782
本	-8.24105
起	-8.24251
▁ไม่ใช่	-8.24338
▁对	-8.24579
เวลา	-8.24613
▁f	-8.24677
ของเธอ	-8.24728
金	-8.2494
ปี	-8.25144
放	-8.25189
法	-8.252
ก็ได้	-8.25442
▁เป็น	-8.2571
เกิด	-8.25715
格	-8.25857
▁เราจะ	-8.25883
ใส่	-8.25959
▁有	-8.26015
口	-8.26029
▁อะไร	-8.26253
แต่	-8.26348
ตอนนี้	-8.2637
于	-8.26579
ทําให้	-8.26593
怎么	-8.26825
แบบ	-8.26873
路	-8.27026
水	-8.27053
พบ	-8.27323
道	-8.27513
门	-8.27868
ได้รับ	-8.28231
西	-8.28249
ใช่ไหม	-8.28438
是个	-8.28447
找到	-8.28565
动	-8.28612
看到	-8.28647
คืน	-8.28765
不能	-8.28813
所	-8.28962
อาจจะ	-8.28978
▁ขอ	-8.29107
ผิด	-8.29197
เมื่อ	-8.29239
▁การ	-8.29622
工作	-8.29756
ใช่มั้ย	-8.29821
▁所以	-8.29827
▁be	-8.29959
ีย	-8.29998
▁ท่าน	-8.30183
这些	-8.30517
บน	-8.30564
ชีวิต	-8.30617
名	-8.307
的事	-8.3098
กลับ	-8.31116
3	-8.31128
应该	-8.31191
เถอะ	-8.3146
พา	-8.31667
เร	-8.31715
了吗	-8.32298
孩子	-8.32327
ตอน	-8.32616
高	-8.32679
正	-8.32825
เรื่องนี้	-8.33017
นา	-8.33065
S	-8.33282
这么	-8.33288
ใหญ่	-8.3329
给你	-8.33584
▁You	-8.34023
เท	-8.34044
ที่คุณ	-8.34052
▁谢谢	-8.34097
时间	-8.34114
像	-8.34368
▁/	-8.34383
รี	-8.34473
หยุด	-8.34615
喜欢	-8.34825
分	-8.35154
海	-8.35241
救	-8.35323
▁ไม่มี	-8.35454
美	-8.35508
▁on	-8.35523
ออกมา	-8.35649
进	-8.35983
作	-8.36074
นัก	-8.36083
ถ้า	-8.36436
นั่ง	-8.36708
เรือ	-8.36722
en	-8.36732
加	-8.36894
▁没有	-8.36992
จะไม่	-8.37121
明	-8.37152
将	-8.37798
▁แค่	-8.37979
這	-8.38082
机	-8.38575
b	-8.38856
ทุก	-8.39014
เนี่ย	-8.39062
理	-8.39198
บ้า	-8.3942
▁然后	-8.39489
安	-8.39648
สาย	-8.39756
同	-8.39823
话	-8.39905
พยายาม	-8.39958
6	-8.40031
的话	-8.40182
ยังไง	-8.4092
的时候	-8.41102
▁好的	-8.4112
คํา	-8.41241
fs	-8.4131
สอง	-8.4151
ริ	-8.41598
เล	-8.41659
等	-8.41732
情	-8.41989
จับ	-8.42056
新	-8.42323
只是	-8.42428
查	-8.42458
ที่ฉัน	-8.42477
ควร	-8.4251
活	-8.42589
ลิ	-8.42913
重	-8.42961
外	-8.4305
โลก	-8.43122
เดียว	-8.43146
东西	-8.43415
อาจ	-8.43418
火	-8.43433
▁เดี๋ยว	-8.4346
▁เอ่อ	-8.43505
เริ่ม	-8.43509
เดิน	-8.43511
一起	-8.43588
▁for	-8.44236
เรียก	-8.44243
恩	-8.44345
or	-8.44401
ทิ้ง	-8.44421
บ้าง	-8.4451
▁A	-8.44542
	-8.4458
▁เมื่อ	-8.44632
而	-8.44666
ตั้ง	-8.45257
掉	-8.45291
两	-8.45552
▁不是	-8.45938
ิ	-8.45943
ไม่เคย	-8.45977
▁มา	-8.46028
合	-8.46095
让	-8.46235
ถาม	-8.46361
หลัง	-8.46403
▁我会	-8.46467
朋友	-8.46607
▁ใคร	-8.46637
卡	-8.46683
ใช่	-8.46763
▁嗯	-8.46835
还是	-8.46894
▁还有	-8.47017
過	-8.47033
可能	-8.47264
信	-8.47349
干	-8.47378
只	-8.47379
ri	-8.47479
让我	-8.4761
แบบนี้	-8.47638
หรือเปล่า	-8.47653
ติด	-8.47674
ไปแล้ว	-8.47774
จะต้อง	-8.48021
รู้จัก	-8.48126
/	-8.48374
回来	-8.48473
接	-8.48542
▁B	-8.48571
ทําไม	-8.48576
三	-8.48601
此	-8.48604
▁是啊	-8.48901
บา	-8.49018
พอ	-8.49149
在这里	-8.49241
▁do	-8.4941
ดิ	-8.49536
▁ดู	-8.49567
尼	-8.49951
出去	-8.49974
ธ	-8.50154
▁为什么	-8.50271
เก็บ	-8.50315
สร้าง	-8.50414
马	-8.50423
光	-8.50439
แห่ง	-8.50591
สิ่งที่	-8.507
▁ดี	-8.50789
▁เอาล่ะ	-8.50869
真的	-8.50972
▁你知道	-8.51014
谁	-8.51017
ve	-8.51021
รู้สึก	-8.51141
▁your	-8.51165
เชื่อ	-8.51326
女	-8.51351
▁พวกเรา	-8.51376
出来	-8.51385
主	-8.51397
กระ	-8.51561
▁this	-8.51577
N	-8.51626
命	-8.51782
น้อย	-8.51795
性	-8.51877
ของผม	-8.51947
ยิง	-8.5201
▁我不知道	-8.52072
นํา	-8.52123
่ง	-8.52242
ดีกว่า	-8.52378
向	-8.52402
bg	-8.52587
transparent	-8.52646
▁ไอ้	-8.52713
▁know	-8.52873
沒	-8.5291
气	-8.53233
号	-8.5325
เอ	-8.5331
นึง	-8.53443
么	-8.53643
离开	-8.53921
ย์	-8.53959
ปืน	-8.53984
意	-8.5404
提	-8.54101
▁ชั้น	-8.54247
▁不要	-8.54268
学	-8.54339
问	-8.54343
โดน	-8.54358
帮	-8.54508
เสียง	-8.54515
以	-8.54527
ผ่าน	-8.54604
那些	-8.54639
▁#	-8.54784
这里	-8.54809
起来	-8.54907
D	-8.54964
▁你是	-8.55012
คนที่	-8.55063
▁请	-8.55119
า	-8.55274
枪	-8.55309
都是	-8.55349
ถ	-8.55502
จะได้	-8.55789
▁你要	-8.55823
มอง	-8.55901
โอ	-8.55979
น่าจะ	-8.55996
เหมือนกัน	-8.56023
ภาพ	-8.5606
▁was	-8.56102
5	-8.56378
ะต	-8.56462
啦	-8.56566
场	-8.56578
物	-8.56591
教	-8.56842
รึเปล่า	-8.56852
對	-8.56972
定	-8.56997
▁พวก	-8.57009
白	-8.57148
ทุกอย่าง	-8.57268
นอน	-8.57437
เธญเธ	-8.57596
f	-8.5767
ตรง	-8.57837
00	-8.57879
部	-8.5792
玩	-8.58155
之前	-8.58258
สิ่ง	-8.58337
▁C	-8.58653
ุ	-8.58722
นิ	-8.58806
กลัว	-8.58816
เร็ว	-8.58911
次	-8.58951
fn	-8.58967
หมด	-8.58996
	-8.59014
ณ	-8.59086
โร	-8.59417
จํา	-8.59531
ห้อง	-8.59576
▁我的	-8.59622
เข้าใจ	-8.59717
ซี	-8.59829
通	-8.59884
เพราะ	-8.59926
问题	-8.59983
มิ	-8.6006
จัดการ	-8.60101
什麼	-8.60104
ท์	-8.60209
送	-8.60534
▁但我	-8.60683
▁have	-8.60829
ไฟ	-8.60919
ที่เรา	-8.61005
ข	-8.6102
杀	-8.61045
ครอบครัว	-8.61121
▁คือ	-8.6122
死了	-8.61239
ch	-8.61593
血	-8.61666
個	-8.61699
▁T	-8.6188
内	-8.62045
it	-8.62252
神	-8.62253
เข้าไป	-8.62265
是谁	-8.6228
ทําได้	-8.62358
อยู่ที่นี่	-8.62373
on	-8.62418
入	-8.62419
▁ผมจะ	-8.62438
ควรจะ	-8.62509
管	-8.62661
ไหน	-8.62775
เลือก	-8.63169
▁ลูก	-8.63292
▁3	-8.63304
เมือง	-8.63564
กลับไป	-8.63595
▁這	-8.63939
▁my	-8.6402
看看	-8.6409
哪	-8.64114
著	-8.64315
เข้ามา	-8.65063
w	-8.65091
็	-8.65115
▁พระเจ้า	-8.65116
ะพ	-8.65117
位	-8.65213
▁คุณจะ	-8.65226
眼	-8.65244
ทั้ง	-8.65276
处	-8.65416
▁好了	-8.65477
安全	-8.65489
▁หนู	-8.65812
เลือด	-8.66331
ให้ฉัน	-8.66411
日	-8.66579
แย่	-8.66634
ผู้หญิง	-8.66686
th	-8.66838
公	-8.6689
还有	-8.66906
▁อืม	-8.66908
นาน	-8.66914
▁因为	-8.66954
弄	-8.66966
ได้แล้ว	-8.67025
7	-8.6715
莉	-8.67169
se	-8.67173
儿	-8.67177
搞	-8.67275
花	-8.67471
ไอ้	-8.6756
▁not	-8.67582
相	-8.67585
1\	-8.67628
来了	-8.67675
▁2	-8.67708
โดย	-8.67725
มากกว่า	-8.67727
不要	-8.67839
▁เราต้อง	-8.67861
L	-8.6797
ให้คุณ	-8.6802
▁真	-8.68102
黑	-8.68109
4	-8.68139
อัน	-8.68246
▁โอ	-8.68498
布	-8.6857
过来	-8.68572
交	-8.68671
让你	-8.68758
ได้ยิน	-8.69024
คอ	-8.691
▁ว่า	-8.69194
▁如果你	-8.69285
อาหาร	-8.69313
全	-8.69411
เปิด	-8.6951
是什么	-8.69537
一次	-8.69583
一些	-8.69614
一点	-8.69638
ลี	-8.6972
指	-8.69728
เว	-8.70002
迪	-8.70082
喝	-8.7015
還	-8.70189
B	-8.7034
夫	-8.70395
▁จาก	-8.70584
▁what	-8.70593
อยากจะ	-8.70727
ไม่รู้	-8.70741
林	-8.70878
E	-8.70882
สัก	-8.70948
▁can	-8.71169
亚	-8.71366
เครื่อง	-8.71396
ัส	-8.71478
▁W	-8.7148
ซื้อ	-8.7151
一個	-8.71573
แรก	-8.71874
O	-8.71893
一直	-8.71967
▁当然	-8.72158
▁แต่ฉัน	-8.72173
▁บางที	-8.72492
到了	-8.72495
▁那是	-8.72648
▁เหมือน	-8.72729
体	-8.72756
您	-8.73144
จบ	-8.73144
与	-8.73233
我们的	-8.7328
、	-8.73297
▁ได้	-8.73583
v	-8.73676
ออกจาก	-8.73783
▁ไม่เป็นไร	-8.73904
จุด	-8.74076
เบ	-8.74081
เธฒเธ	-8.74269
▁ให้	-8.74314
想要	-8.74314
买	-8.74351
早	-8.74514
空	-8.74515
เปลี่ยน	-8.74537
ขาย	-8.74835
文	-8.74873
อา	-8.75028
ho	-8.75073
เรียน	-8.752
ติ	-8.75266
觉得	-8.75397
M	-8.75467
▁b	-8.75512
为什么	-8.75531
▁แล้วก็	-8.7583
▁ฟังนะ	-8.75858
ตํารวจ	-8.75918
战	-8.75994
五	-8.7626
鬼	-8.76296
受	-8.76352
กับฉัน	-8.7655
▁它	-8.76562
十	-8.76579
▁กับ	-8.76711
关	-8.76749
不知道	-8.7678
▁with	-8.76876
๊	-8.76988
9	-8.77083
几	-8.77175
难	-8.77304
▁he	-8.77375
ต่อไป	-8.77455
▁我不	-8.7749
巴	-8.77496
ส่วน	-8.77647
สัน	-8.77689
▁นี่คือ	-8.77726
วา	-8.77788
达	-8.77798
ล่า	-8.77879
平	-8.77895
发现	-8.77896
ly	-8.77898
พวกนั้น	-8.77959
▁are	-8.78014
อยู่ไหน	-8.78101
จะไป	-8.78582
怎么样	-8.7864
跟我	-8.78666
el	-8.78704
度	-8.78762
T	-8.78833
์	-8.78905
▁我也	-8.7899
at	-8.79084
员	-8.79123
・	-8.79137
今天	-8.7917
ดื่ม	-8.79935
shad	-8.80096
ลืม	-8.80111
狗	-8.80353
告诉我	-8.80474
	-8.80553
▁等等	-8.80632
往	-8.80868
เก	-8.80915
非常	-8.81026
这是	-8.8125
▁抱歉	-8.8152
▁\	-8.81551
她的	-8.81721
งั้นเหรอ	-8.81732
不想	-8.81886
ข้อ	-8.82001
待	-8.82016
或	-8.82025
p	-8.82179
คา	-8.82306
▁ฉันไม่	-8.82332
▁don	-8.82394
อื่น	-8.8245
สาว	-8.8246
อย่างนั้น	-8.82497
8	-8.82798
远	-8.82829
色	-8.82852
คนอื่น	-8.82957
เขียน	-8.82969
พวกมัน	-8.83043
สวย	-8.83058
ลอง	-8.831
▁ดังนั้น	-8.83282
写	-8.83343
ที่ผม	-8.83376
▁不过	-8.8345
▁just	-8.83481
▁อะไรนะ	-8.83497
ที่ดี	-8.83568
有人	-8.8368
▁谁	-8.83713
坐	-8.83806
ดูแล	-8.83911
ไม่สามารถ	-8.83946
อยู่กับ	-8.84031
离	-8.8407
▁就是	-8.84101
跑	-8.84114
装	-8.84148
เธฑเธ	-8.8421
▁把	-8.84297
ได้ไหม	-8.84319
派	-8.84404
收	-8.84454
科	-8.84555
倒	-8.84627
▁ฉันคิดว่า	-8.84678
肯定	-8.84768
ที่ไหน	-8.84878
ฉันจะ	-8.85034
任何	-8.85193
希望	-8.85285
จน	-8.85314
โน	-8.85387
วง	-8.85617
▁go	-8.85848
ขึ้นมา	-8.85929
▁我在	-8.8596
點	-8.86006
หรือไม่	-8.86007
จัง	-8.86014
เลยนะ	-8.86022
เตอร์	-8.86029
▁一	-8.86029
ผู้ชาย	-8.86172
อย่า	-8.86209
▁หยุด	-8.86271
穿	-8.86275
▁对不起	-8.86477
▁而且	-8.86527
ชิ	-8.86531
是我	-8.86554
保	-8.86697
四	-8.86703
ชา	-8.86748
ร่วม	-8.86749
雷	-8.86776
风	-8.86882
โล	-8.86893
ie	-8.86932
罗	-8.86972
如何	-8.86995
▁D	-8.87067
}	-8.87092
有点	-8.8713
流	-8.87236
万	-8.87286
เม	-8.87346
จะเป็น	-8.87348
明白	-8.87372
รอบ	-8.87552
国	-8.87639
正在	-8.87641
้น	-8.87812
▁แน่นอน	-8.87838
▁พอ	-8.87851
้ง	-8.87902
้อ	-8.87981
ไปที่	-8.88002
那么	-8.88014
มาจาก	-8.88046
▁5	-8.8809
▁你好	-8.88102
▁噢	-8.88188
▁也许	-8.88234
ข่าว	-8.88235
ี	-8.88235
ยังไม่	-8.88288
▁1	-8.88298
谈	-8.88317
ของนาย	-8.88361
▁ซึ่ง	-8.88388
呀	-8.88412
ผ	-8.88454
方	-8.88487
g	-8.8849
米	-8.88524
却	-8.88556
山	-8.88664
หาย	-8.88731
传	-8.88772
สาม	-8.88794
干嘛	-8.88862
事情	-8.89001
กําลังจะ	-8.89053
告诉你	-8.8906
发生	-8.89129
กา	-8.89154
ur	-8.89223
▁嗨	-8.89418
st	-8.89467
▁ถ้าคุณ	-8.89485
▁p	-8.89552
▁E	-8.89581
总	-8.89709
ตก	-8.89865
▁นี่มัน	-8.8989
▁你在	-8.89912
ro	-8.89923
โต	-8.8994
▁你的	-8.90068
คุยกับ	-8.90088
เด	-8.90096
▁out	-8.90187
走了	-8.9025
些	-8.90445
月	-8.90493
睡	-8.90509
ดา	-8.90548
怪	-8.90666
ศ	-8.90681
▁เพื่อน	-8.9095
ครั้ง	-8.9102
อิ	-8.91052
球	-8.91118
请	-8.91145
整	-8.91291
▁要	-8.91463
片	-8.91496
星	-8.915
留	-8.91504
过去	-8.91845
เลิก	-8.91921
หมอ	-8.91963
周	-8.92002
อีกครั้ง	-8.92053
这种	-8.92283
▁ได้โปรด	-8.92389
维	-8.92465
算	-8.92469
สัญญา	-8.92529
สําคัญ	-8.92552
不错	-8.92715
▁เกิดอะไรขึ้น	-8.92733
▁เอ	-8.92738
ือ	-8.9287
包	-8.92886
笑	-8.92903
伤	-8.9301
เพียง	-8.93033
ชาย	-8.93052
偷	-8.93111
书	-8.93262
很好	-8.93344
เท่านั้น	-8.93361
转	-8.93598
เพิ่ง	-8.93671
▁ฉันก็	-8.9369
好了	-8.93737
一切	-8.93828
士	-8.9392
边	-8.93983
อยู่ที่	-8.94013
准备	-8.9407
取	-8.94088
ให้ผม	-8.94243
ปิด	-8.94282
▁你想	-8.94342
ปลอดภัย	-8.94455
แ	-8.94562
▁เรื่อง	-8.94614
森	-8.94648
กลับบ้าน	-8.9468
ad	-8.9474
開	-8.94926
พัก	-8.95069
怎麼	-8.95079
ซ์	-8.95153
认为	-8.95161
ื	-8.95187
队	-8.95191
他們	-8.95282
รูป	-8.95294
นอก	-8.95294
有个	-8.95346
แบบนั้น	-8.95382
ข้อมูล	-8.95392
วิ	-8.95569
那样	-8.95648
和你	-8.95676
跟你	-8.95724
原	-8.95804
โง่	-8.95816
的地方	-8.95859
电	-8.95952
船	-8.96047
所有	-8.96134
▁看	-8.96141
เห	-8.96208
ด้าน	-8.96215
เบอร์	-8.96215
พร้อม	-8.96297
公司	-8.96328
อ่าน	-8.96345
ลิน	-8.964
คนเดียว	-8.96442
▁没错	-8.96453
เซ	-8.96458
สนุก	-8.96494
▁ปี	-8.96536
也是	-8.96563
▁ฉันรู้	-8.96575
่น	-8.96595
為	-8.96599
裡	-8.9699
โทร	-8.97065
ประ	-8.97073
▁ต้อง	-8.97106
เค	-8.97163
แหละ	-8.97187
军	-8.97346
่า	-8.97383
ซี่	-8.97478
ไร	-8.97485
เราจะ	-8.97526
线	-8.97561
解	-8.97726
พี่	-8.97772
ไปหา	-8.97811
รอย	-8.97919
โค	-8.98078
	-8.98161
的是	-8.98187
感觉	-8.9825
ปล่อย	-8.9828
โกหก	-8.98284
เป	-8.98303
เย	-8.98401
z	-8.98563
ระ	-8.98611
โซ	-8.98755
室	-8.98793
ทําลาย	-8.98824
有什么	-8.98828
▁这个	-8.98891
สุดท้าย	-8.98896
知	-8.98943
和我	-8.98948
晚	-8.99032
表	-8.99038
โอเค	-8.99041
到底	-8.99056
世界	-8.99137
得到	-8.99174
回家	-8.99307
▁ฉันไม่ได้	-8.99333
มนุษย์	-8.99421
照	-8.99457
王	-8.99488
兰	-8.99497
一定	-8.99614
▁here	-8.99676
嘛	-8.99691
จิ	-8.99801
连	-8.99956
警察	-8.99957
ที่มี	-9
ว่าคุณ	-9.00007
酒	-9.00164
หนี	-9.00174
ra	-9.00208
▁w	-9.00228
ประตู	-9.00247
奇	-9.00283
▁all	-9.00294
不了	-9.00322
เหลือ	-9.00373
คู่	-9.00469
电话	-9.00561
เป็นใคร	-9.00584
ค่า	-9.0059
▁J	-9.00652
ความจริง	-9.00698
求	-9.00847
▁up	-9.00927
器	-9.01225
▁我觉得	-9.0129
犯	-9.0131
กิ	-9.01351
ลอ	-9.0138
ปัญหา	-9.01488
停	-9.01496
就会	-9.01498
病	-9.01509
ตี	-9.01548
มาแล้ว	-9.01569
ึ	-9.01654
地方	-9.01674
ผล	-9.01723
▁M	-9.01768
มาที่นี่	-9.01803
言	-9.0183
la	-9.01871
ซัก	-9.01917
已	-9.02101
▁O	-9.02223
来的	-9.02268
แมน	-9.02317
▁get	-9.02373
声	-9.02475
妈妈	-9.02479
▁สําหรับ	-9.02569
回去	-9.02618
常	-9.02626
哈	-9.02748
反	-9.02759
這個	-9.02768
纳	-9.02813
在一起	-9.02853
เช	-9.03167
กับคุณ	-9.03171
假	-9.03172
อยู่แล้ว	-9.03272
จัด	-9.03282
ter	-9.03312
bord	-9.03312
▁เธ	-9.0335
โม	-9.03438
间	-9.03624
วิธี	-9.03689
强	-9.03804
相信	-9.03926
阿	-9.03939
เยอะ	-9.0394
品	-9.0399
洛	-9.04022
变	-9.04115
You	-9.04122
▁No	-9.04131
โด	-9.04172
▁ทุกคน	-9.04177
程	-9.04188
沒有	-9.04272
ยาก	-9.04301
波	-9.04316
กี้	-9.04413
▁h	-9.04438
ทหาร	-9.04443
โทรศัพท์	-9.04527
兄弟	-9.0453
ระเบิด	-9.0461
女人	-9.04659
สูง	-9.04669
ชุด	-9.04695
P	-9.04713
เจ	-9.04713
▁สวัสดี	-9.04729
▁ความ	-9.04779
清	-9.04792
▁like	-9.04822
▁so	-9.04846
站	-9.04849
医生	-9.04874
失	-9.04903
瑞	-9.05012
แก่	-9.05019
พวกนี้	-9.05033
▁4	-9.05043
อายุ	-9.05187
เฟ	-9.05202
วันนี้	-9.05215
ไม่ต้อง	-9.05315
จะทํา	-9.05323
局	-9.05356
นาง	-9.0542
ต้องทํา	-9.05429
那里	-9.05452
et	-9.05498
ล์	-9.05505
ได้ยังไง	-9.05562
▁เน	-9.05564
ได้มั้ย	-9.05609
城	-9.05659
自己的	-9.05666
un	-9.05668
以前	-9.0567
lo	-9.05761
ไม่อยาก	-9.05792
ด์	-9.05952
▁We	-9.05952
วาง	-9.06076
▁ส	-9.06104
逃	-9.06279
ใด	-9.06391
基	-9.06428
▁right	-9.06446
计划	-9.06452
สี	-9.0658
บางอย่าง	-9.06635
首	-9.06649
พระเจ้า	-9.06746
▁小	-9.06749
只有	-9.0687
หลาย	-9.06944
ลงไป	-9.07248
งั้น	-9.0725
种	-9.07275
▁got	-9.07295
完	-9.07335
报	-9.07343
▁G	-9.07372
区	-9.07388
感	-9.07466
民	-9.07476
▁มันจะ	-9.07644
เกิดขึ้น	-9.07652
บี้	-9.07654
ซา	-9.07674
在哪	-9.07743
房	-9.07779
ic	-9.07822
▁听着	-9.07873
▁ตอน	-9.07918
▁我就	-9.07919
ol	-9.08013
因为	-9.08105
(	-9.08201
因	-9.08209
แล	-9.0824
น์	-9.08324
ไกล	-9.08424
▁เค้า	-9.08465
的东西	-9.08624
ก็จะ	-9.08693
▁It	-9.0878
หมายถึง	-9.08788
เสมอ	-9.08791
化	-9.08863
▁还	-9.0889
▁而	-9.08942
il	-9.08992
挺	-9.09007
▁ไม่ต้อง	-9.09036
必须	-9.09039
数	-9.09082
สุด	-9.09146
คอย	-9.09167
及	-9.09183
▁R	-9.09244
รู	-9.09462
工	-9.09568
เก่า	-9.09731
們	-9.09762
ไม่เป็นไร	-9.09793
两个	-9.09949
案	-9.09952
มีอะไร	-9.09974
伊	-9.10017
怕	-9.10032
完全	-9.10135
ไปเลย	-9.10181
但	-9.10361
▁The	-9.10368
พิ	-9.10424
之后	-9.10461
在这	-9.1051
ต์	-9.10629
กลาง	-9.10671
ร้าน	-9.10682
如	-9.10696
R	-9.10717
▁มีอะไร	-9.10813
H	-9.10867
ว่าฉัน	-9.10937
เท่าไหร่	-9.1101
▁很好	-9.11156
藏	-9.11189
果	-9.11215
错	-9.11224
▁从	-9.11229
ง่าย	-9.11594
帮我	-9.11595
啥	-9.11596
es	-9.11636
其他	-9.11748
无法	-9.1175
รอด	-9.11904
te	-9.11963
我是	-9.12024
อีกแล้ว	-9.12109
药	-9.1214
落	-9.1218
้ม	-9.12192
這樣	-9.12385
是你	-9.12396
li	-9.12496
ปาก	-9.1258
ne	-9.12613
下来	-9.12623
ให้เขา	-9.12624
▁ไม่มีใคร	-9.1264
除	-9.12835
	-9.12962
懂	-9.13
ในการ	-9.13056
อยู่ที่ไหน	-9.13063
千	-9.13131
▁เปล่า	-9.13179
岁	-9.13237
亲	-9.13361
▁真的	-9.13384
好吗	-9.13401
▁那个	-9.13496
女孩	-9.1352
ตามหา	-9.13568
说话	-9.13586
▁พวกมัน	-9.1363
ลูกชาย	-9.13638
靠	-9.13691
รึ	-9.13834
เดี๋ยวนี้	-9.13939
夜	-9.13962
越	-9.14114
ตัน	-9.14256
๋	-9.14299
少	-9.143
怎样	-9.14301
使	-9.14303
โก	-9.14323
ทีม	-9.14406
丝	-9.14579
ร้อน	-9.14626
抓	-9.14667
了解	-9.14819
追	-9.14904
台	-9.14905
▁about	-9.14906
一个人	-9.14946
ชนะ	-9.14972
ha	-9.14975
ศพ	-9.15095
▁And	-9.15141
密	-9.15227
▁那你	-9.15227
▁ผู้	-9.15233
也不	-9.15316
ก็คือ	-9.15348
塔	-9.15374
▁快点	-9.15379
第	-9.15439
▁คุณต้อง	-9.15469
哦	-9.15536
讓	-9.15557
be	-9.15559
ตัด	-9.15561
期	-9.15691
จะมี	-9.15712
▁ครับ	-9.15724
พระ	-9.15996
半	-9.16051
คิดถึง	-9.16111
x	-9.16157
退	-9.1622
เดือน	-9.16283
วะ	-9.1632
实	-9.16331
如此	-9.16339
ดาว	-9.16371
深	-9.1646
演	-9.16477
小姐	-9.16547
我要	-9.1661
▁He	-9.16646
姆	-9.16711
時	-9.16775
ห์	-9.16796
รักษา	-9.16812
ขา	-9.16873
击	-9.1692
把我	-9.16933
害	-9.16979
六	-9.16984
ให้เธอ	-9.16991
▁P	-9.17017
保护	-9.17088
ที่เขา	-9.17119
伯	-9.17175
▁ฮ	-9.17177
告诉	-9.17314
บอ	-9.17455
蒂	-9.17462
▁What	-9.17514
เกินไป	-9.17515
ใบ	-9.17608
▁那么	-9.17618
丽	-9.17695
卖	-9.17702
	-9.17702
ะฐ	-9.17711
妈	-9.17711
做的	-9.17791
ร้าย	-9.1783
อร์	-9.1785
▁ตกลง	-9.1788
破	-9.17955
▁喂	-9.17961
อาทิตย์	-9.17987
▁gonna	-9.17991
คุณจะ	-9.18163
เธตเน	-9.18187
条	-9.18312
เหนือ	-9.18329
服	-9.18352
别人	-9.18367
样	-9.18559
忙	-9.18644
ขโมย	-9.18668
เล็ก	-9.18801
ว่ามัน	-9.1893
แทน	-9.18955
迷	-9.19203
把他	-9.19216
奥	-9.19252
ย้าย	-9.193
语	-9.19301
ไปไหน	-9.19331
▁10	-9.19473
ระบบ	-9.19791
อะ	-9.19807
從	-9.19839
▁และฉัน	-9.19853
▁แต่ผม	-9.19857
--	-9.19899
听到	-9.19923
มันเป็น	-9.19966
▁我只是	-9.20019
ยก	-9.20117
ํา	-9.20186
▁no	-9.20243
▁我有	-9.20249
ทา	-9.20405
ว่าเขา	-9.20425
罪	-9.20538
เช้า	-9.20657
มาก่อน	-9.20692
修	-9.20727
กลายเป็น	-9.20747
อยากให้	-9.20883
พูดว่า	-9.20933
ent	-9.21128
โชคดี	-9.21159
ปกป้อง	-9.21174
and	-9.21193
▁เ	-9.21328
เล่า	-9.21349
่อ	-9.21364
师	-9.21376
好的	-9.21475
刚	-9.21493
見	-9.2154
หายไป	-9.21546
รี่	-9.21645
กะ	-9.21712
สั่ง	-9.21968
เก่ง	-9.22054
不會	-9.22106
▁สิ่งที่	-9.22119
由	-9.22148
ว์	-9.22179
制	-9.22234
ใต้	-9.22242
代	-9.22296
以为	-9.22323
เกลียด	-9.22325
美国	-9.22409
真是	-9.22479
男人	-9.22533
生活	-9.2257
皮	-9.22628
选	-9.22678
ir	-9.22727
หนุ่ม	-9.22782
▁再	-9.22809
托	-9.22872
量	-9.22881
แล้วนะ	-9.22935
ถือ	-9.22959
我会	-9.2296
哥	-9.22965
G	-9.23106
他妈的	-9.23148
am	-9.23246
ut	-9.23398
บิน	-9.23403
เย็น	-9.23423
街	-9.2349
แฟน	-9.2349
分钟	-9.235
▁want	-9.23507
คุยกัน	-9.23521
百	-9.23578
บิ	-9.23605
▁there	-9.23643
▁我能	-9.23782
讲	-9.23825
继续	-9.23829
把你	-9.23842
▁怎么了	-9.23992
▁him	-9.24016
看见	-9.24262
ul	-9.24267
แบ	-9.24283
▁你有	-9.24301
▁有人	-9.24323
ปล่อยให้	-9.24396
มีความ	-9.24452
หัวใจ	-9.24545
换	-9.24565
拍	-9.24668
▁呃	-9.24672
如果	-9.24882
คงจะ	-9.2489
อยู่นี่	-9.24914
ดี้	-9.24939
แรง	-9.25111
ัน	-9.25132
▁K	-9.25246
ตรงนี้	-9.25251
ช้า	-9.25255
件	-9.25282
▁谢谢你	-9.25292
เพลง	-9.2532
ว่าจะ	-9.25369
坏	-9.25373
▁没	-9.25499
อี	-9.25554
J	-9.25587
▁เด็ก	-9.25684
▁ฉันอยาก	-9.25691
คืออะไร	-9.25694
่ม	-9.25761
直	-9.25818
杀了	-9.25916
ใกล้	-9.25926
下去	-9.25936
สอน	-9.26028
คืนนี้	-9.261
好好	-9.26147
干什么	-9.26186
ตั้งแต่	-9.26211
มีการ	-9.26217
เป็นอะไร	-9.26263
蛋	-9.26269
进来	-9.26274
▁ฉันรู้ว่า	-9.26349
K	-9.26381
断	-9.26383
▁อ	-9.26402
ร่า	-9.26407
▁ไม่ได้	-9.26464
ไอ	-9.26555
是我的	-9.26663
认识	-9.26698
คงไม่	-9.2685
▁今天	-9.2688
▁只是	-9.2689
▁ที่รัก	-9.26952
二	-9.26959
ได้รับการ	-9.26974
莱	-9.26997
每	-9.271
ขอโทษ	-9.27171
▁one	-9.2724
我就	-9.27255
สา	-9.27342
不好	-9.27365
毒	-9.27413
มีปัญหา	-9.27453
▁他是	-9.27612
๊ก	-9.27648
	-9.2765
跳	-9.27747
▁拜托	-9.27767
客	-9.2779
หนัง	-9.27833
ick	-9.27869
สู้	-9.27901
นะครับ	-9.27944
ด้วยกัน	-9.28014
	-9.28075
字	-9.28093
ที่นั่น	-9.28139
这儿	-9.28152
นะคะ	-9.28191
แต่งงาน	-9.28223
大家	-9.283
พิเศษ	-9.28345
官	-9.28457
让他	-9.28499
还没	-9.28514
cHFF	-9.2856
ัล	-9.28569
永远	-9.28621
马上	-9.28688
▁ไม่มีอะไร	-9.28693
史	-9.28821
▁think	-9.28825
คดี	-9.28907
สงคราม	-9.28932
进去	-9.29054
戴	-9.2908
แอ	-9.29119
ตลอด	-9.29181
หน่วย	-9.29309
ประเทศ	-9.29313
▁โดย	-9.29328
证	-9.29377
不可能	-9.29406
就能	-9.29468
应	-9.29486
▁可	-9.29585
女士	-9.29825
▁你能	-9.29881
ว่าเธอ	-9.30004
อาวุธ	-9.30068
ห้า	-9.30158
超	-9.30208
ดัง	-9.30229
ยืน	-9.3023
非	-9.30361
楼	-9.30387
ที่เธอ	-9.30395
凯	-9.30558
ตลก	-9.30561
在这儿	-9.30578
诺	-9.3061
]	-9.30613
นี	-9.30623
บอกฉัน	-9.30655
乐	-9.30685
ว่ะ	-9.30745
เมื่อไหร่	-9.30832
麻烦	-9.30834
▁นี่เป็น	-9.30865
▁ฉันต้อง	-9.30899
上帝	-9.31035
โทรหา	-9.31075
ลู	-9.31085
เป็นเรื่อง	-9.31164
▁ช่วย	-9.31248
做什么	-9.31299
10	-9.31308
▁นั่นคือ	-9.31382
ce	-9.31406
说的	-9.31422
单	-9.31455
หนังสือ	-9.31477
▁只要	-9.31536
▁你可以	-9.31565
久	-9.31598
▁ตอนที่	-9.31599
清楚	-9.31768
班	-9.31783
愿	-9.31784
ความคิด	-9.31797
吉	-9.31855
เอาไว้	-9.31904
男	-9.31918
ฟิ	-9.32157
▁*	-9.32158
ต่าง	-9.32187
莎	-9.32212
มีคน	-9.32217
ขอบคุณ	-9.3224
แสดง	-9.32297
不行	-9.32422
曼	-9.32434
ื้อ	-9.32516
看起来	-9.32605
้า	-9.32649
象	-9.3267
▁ผมคิดว่า	-9.32717
ลูกสาว	-9.32769
可是	-9.32871
當	-9.3288
▁เรามี	-9.32924
愛	-9.32937
ร้อง	-9.32964
▁ฉันไม่รู้	-9.33077
▁我不想	-9.33121
มีความสุข	-9.3314
ทําร้าย	-9.33212
领	-9.33217
便	-9.33308
满	-9.33327
飞	-9.33361
爸爸	-9.33401
ซ่อน	-9.33435
動	-9.33554
อก	-9.33589
▁ยัง	-9.3368
▁但你	-9.3374
贝	-9.33816
หนัก	-9.33835
人的	-9.33845
的小	-9.33908
หมายความว่า	-9.33934
帮你	-9.33944
หล่อน	-9.33965
▁คนที่	-9.33969
▁他們	-9.33997
▁也	-9.34001
▁我可以	-9.34043
▁see	-9.34088
小时	-9.341
▁มันไม่	-9.34112
守	-9.34113
决定	-9.34186
▁天啊	-9.34196
สงสัย	-9.34212
梦	-9.34234
索	-9.34274
ขับ	-9.34431
成为	-9.34502
▁20	-9.34596
บท	-9.34617
ิล	-9.34637
▁这就是	-9.34732
ช่าง	-9.34853
son	-9.34892
ถนน	-9.34918
เพ	-9.34979
วิน	-9.35001
โอกาส	-9.35039
เสร็จ	-9.35046
ล้าน	-9.35073
然	-9.35103
▁这里	-9.35144
混蛋	-9.35152
何	-9.35202
好像	-9.35301
ไม่ดี	-9.35368
บริษัท	-9.35431
他们的	-9.35483
現在	-9.35498
ไล่	-9.35547
รวม	-9.35608
我想	-9.35614
结	-9.35719
ฮ	-9.3574
อุ	-9.35773
ข้าง	-9.35854
ทิ	-9.35888
ควบคุม	-9.35891
州	-9.35891
is	-9.35968
▁6	-9.35993
极	-9.36064
พัน	-9.36072
ฉ	-9.361
im	-9.36179
หญิง	-9.36214
สิบ	-9.36229
店	-9.36283
แผน	-9.36508
的事情	-9.36522
▁我得	-9.36565
給	-9.36572
在哪里	-9.36604
▁来吧	-9.36606
打算	-9.36633
ไม	-9.36671
约	-9.36692
很多	-9.36709
伦	-9.3671
▁ที่จะ	-9.36714
去了	-9.36737
ไม่ค่อย	-9.36752
ฝัน	-9.36775
▁让我	-9.368
▁我不是	-9.3681
舞	-9.36866
▁เร็วเข้า	-9.36872
热	-9.36876
▁ขอบใจ	-9.36911
未	-9.36916
▁ฉันขอโทษ	-9.36961
集	-9.36975
记	-9.37014
看着	-9.37096
長	-9.37109
พรุ่งนี้	-9.3711
อึ	-9.37127
行动	-9.37161
พวกคุณ	-9.37234
最后	-9.37268
步	-9.3729
มาถึง	-9.37345
เส	-9.37363
จะมา	-9.37471
sh	-9.37489
ซู	-9.37546
โบ	-9.37555
艾	-9.37597
ชาว	-9.37603
▁你怎么	-9.37609
▁我们要	-9.37609
▁พี่	-9.37616
ก็ไม่	-9.37692
บอกคุณ	-9.37699
กลุ่ม	-9.37804
สัตว์	-9.37807
วี	-9.3782
ไม่มีใคร	-9.37889
担心	-9.37984
张	-9.38103
เลี้ยง	-9.38129
肉	-9.38165
份	-9.38213
U	-9.38221
形	-9.38283
เซอร์	-9.38416
เดียวกัน	-9.3843
▁at	-9.38445
▁你会	-9.38558
▁จริง	-9.38587
จ๊ะ	-9.38593
付	-9.38628
曾	-9.3863
งค์	-9.3867
เวอร์	-9.38675
▁是吗	-9.38829
▁爸爸	-9.38832
▁บอก	-9.38863
你是	-9.38943
把它	-9.38944
เข	-9.38944
ฮะ	-9.38961
เดินทาง	-9.38964
防	-9.38994
才能	-9.39006
ตอบ	-9.39102
▁หวัดดี	-9.39113
弗	-9.39113
▁ฉันมี	-9.39119
萨	-9.39162
อะไรกัน	-9.39277
弹	-9.39312
ผมจะ	-9.3945
▁那就	-9.39461
套	-9.39471
是在	-9.39479
มั๊ย	-9.39498
费	-9.39584
晚上	-9.3959
แน่นอน	-9.39621
对我	-9.39626
สเตอร์	-9.39732
今晚	-9.39843
แน่ใจ	-9.39848
情况	-9.39874
拜	-9.39875
เกร	-9.39908
上的	-9.40034
หมา	-9.40102
ตอนที่	-9.40114
id	-9.40173
มากเลย	-9.40232
ขวา	-9.40261
อันตราย	-9.40371
โรงเรียน	-9.40381
ชน	-9.40477
▁你觉得	-9.40485
漂亮	-9.40506
▁別	-9.40688
ดึง	-9.40789
ู	-9.40836
▁ฉันต้องการ	-9.40861
你們	-9.40875
เต็ม	-9.40927
愿意	-9.41019
▁N	-9.41048
พูดถึง	-9.41072
▁看看	-9.41075
了吧	-9.41078
โ	-9.41151
มันจะ	-9.41222
ยอม	-9.41267
สนใจ	-9.4134
後	-9.41341
毛	-9.41402
น่ารัก	-9.41424
▁就像	-9.41424
石	-9.41482
重要	-9.41489
▁ผมไม่	-9.41576
เลีย	-9.41581
都不	-9.41634
杰	-9.41644
กังวล	-9.41646
เพียงแค่	-9.4165
จึง	-9.41659
▁..	-9.41663
อง	-9.41666
0	-9.41695
อากาศ	-9.41768
市	-9.41817
多少	-9.4183
พูดอะไร	-9.41882
帮助	-9.41963
สองคน	-9.41989
กระเป๋า	-9.42013
▁一个	-9.42034
ไม้	-9.4209
第一	-9.42095
▁they	-9.42165
и	-9.42173
▁แต่คุณ	-9.42193
จ่าย	-9.42253
เกิน	-9.42255
ate	-9.42269
▁要是	-9.42287
แค่ไหน	-9.42307
ให้เรา	-9.42322
▁her	-9.42325
尽	-9.42476
乱	-9.42497
衣服	-9.42499
ry	-9.42534
造	-9.42567
▁ทุกอย่าง	-9.42628
20	-9.42663
ปกติ	-9.42736
อยู่บน	-9.42738
好吧	-9.42751
碰	-9.42817
这么做	-9.42943
▁去	-9.42983
▁阿	-9.42995
不到	-9.43022
画	-9.4306
車	-9.4306
เจอกัน	-9.43063
ระหว่าง	-9.43086
脚	-9.43122
ฝึก	-9.43123
根	-9.43135
จู	-9.43249
ติดต่อ	-9.43304
*	-9.4343
เมีย	-9.43454
เชื่อว่า	-9.43492
八	-9.43619
所有的	-9.43664
去找	-9.43683
ตื่น	-9.43727
团	-9.43793
总是	-9.43801
选择	-9.43807
人类	-9.43872
แต่ง	-9.43965
ฉลาด	-9.43994
พร	-9.43997
▁d	-9.44054
说了	-9.44118
什么事	-9.44128
音	-9.44223
耶	-9.44244
กอง	-9.44288
vi	-9.44324
กู	-9.44329
แน่ๆ	-9.44338
ตี้	-9.44349
▁us	-9.44546
聽	-9.44549
ack	-9.44674
北	-9.44684
已經	-9.4469
เรีย	-9.44706
ยินดี	-9.44776
▁แล้วคุณ	-9.4478
▁我很	-9.44788
古	-9.4481
ลลี่	-9.44915
▁นั่นมัน	-9.44917
▁เพราะว่า	-9.45037
ต้องไป	-9.45049
อย่างนี้	-9.45162
ว่าเรา	-9.45249
灵	-9.45249
นิดหน่อย	-9.45263
ใช้เวลา	-9.45365
เป็นเพื่อน	-9.45389
普	-9.45487
▁你就	-9.45499
帶	-9.45569
บาง	-9.45595
家人	-9.4568
ชั่วโมง	-9.45695
不过	-9.45726
改变	-9.45728
其	-9.4575
▁tr	-9.46036
背	-9.46076
▁这些	-9.46153
调	-9.46184
▁這是	-9.46282
ไล	-9.46384
说过	-9.46388
ขี้	-9.46592
嘴	-9.46653
杯	-9.46707
对你	-9.46755
ยิ่ง	-9.46764
▁ฉันแค่	-9.46788
สินะ	-9.46836
料	-9.46842
令	-9.46852
เธกเน	-9.46888
เริ่มต้น	-9.46925
▁นั่นเป็น	-9.46938
หรือยัง	-9.46979
นับ	-9.47101
เจ็บ	-9.4712
绝	-9.47163
▁มานี่	-9.47171
ญ	-9.47233
該	-9.47296
南	-9.47299
▁มันคือ	-9.47307
关于	-9.47337
ดูเหมือน	-9.47374
警	-9.47381
เยี่ยม	-9.47416
吓	-9.47428
娜	-9.47435
สติ	-9.47474
▁ฉันว่า	-9.47492
射	-9.47508
สัญญาณ	-9.4759
▁วันนี้	-9.47594
意思	-9.47608
▁太	-9.47695
勒	-9.47747
按	-9.47817
▁back	-9.47835
顿	-9.4787
丢	-9.47882
กล้า	-9.47937
房子	-9.47994
別	-9.48116
影	-9.48192
▁แต่มัน	-9.48193
经	-9.48213
ครึ่ง	-9.48275
控制	-9.48277
ไซ	-9.48311
▁都	-9.48385
แค	-9.48403
业	-9.48434
武器	-9.48474
记得	-9.48513
鱼	-9.48534
Y	-9.48544
วน	-9.48598
▁ก็ได้	-9.48602
准	-9.48607
ทํามัน	-9.48615
ฟา	-9.48645
▁เขาจะ	-9.48679
推	-9.48796
ราย	-9.48827
โห	-9.48841
8080}	-9.48857
แป	-9.48869
บาร์	-9.48887
ไปได้	-9.48893
儿子	-9.48907
商	-9.48927
ight	-9.48997
กับผม	-9.49003
ตะ	-9.49044
你要	-9.49092
เสื้อ	-9.49128
害怕	-9.4914
引	-9.49159
办	-9.49213
不用	-9.4924
นัด	-9.49358
切	-9.49384
接受	-9.4947
ي	-9.4952
ภรรยา	-9.4952
ลม	-9.49653
告	-9.49694
็ค	-9.4978
แล้วล่ะ	-9.49806
▁等	-9.49837
จะให้	-9.49876
แดน	-9.4988
▁de	-9.49895
หมาย	-9.4994
one	-9.49963
เหตุ	-9.49967
英	-9.49995
婚	-9.5004
▁คุณรู้	-9.50063
ถูกต้อง	-9.50077
▁อา	-9.5023
招	-9.5025
▁我知道你	-9.50269
▁您	-9.50308
注意	-9.50314
▁这样	-9.5033
บี	-9.5042
ฮอ	-9.50504
ลุก	-9.50514
aH	-9.50524
收到	-9.50554
แฟ	-9.50614
▁เขาเป็น	-9.50804
無	-9.50824
回到	-9.50827
เตือน	-9.50842
เปอร์	-9.50867
อยากได้	-9.50915
สี่	-9.50958
运	-9.50963
เรียบร้อย	-9.50984
▁只有	-9.51
▁所以我	-9.5108
ไม่มีอะไร	-9.51101
คุก	-9.51217
▁如果我	-9.51218
่ํา	-9.51228
▁ถึง	-9.5124
莫	-9.51253
读	-9.51253
权	-9.51276
世	-9.51338
洗	-9.51387
▁真是	-9.51406
▁先生	-9.51415
是不是	-9.51478
有没有	-9.51495
頭	-9.51522
复	-9.5163
时候	-9.51649
替	-9.51657
温	-9.51657
那边	-9.51668
จะทําให้	-9.51709
ard	-9.51715
รุ	-9.5181
แอน	-9.51824
ทาน	-9.5192
货	-9.51928
ยังคง	-9.51942
▁我没	-9.51965
龙	-9.51995
เท่า	-9.52
The	-9.52031
เปล่า	-9.52034
เสียใจ	-9.52036
胡	-9.52063
当然	-9.52117
▁大	-9.52126
as	-9.52137
แตก	-9.52173
ช่วง	-9.52186
วิ่ง	-9.52186
บางคน	-9.52192
สามี	-9.52271
▁รอ	-9.52321
▁นาที	-9.52321
▁เฮ	-9.52384
身上	-9.52388
痛	-9.52399
om	-9.524
预	-9.52402
จะทําอะไร	-9.52413
关系	-9.52464
ell	-9.52476
▁或者	-9.52484
帮忙	-9.52498
ัย	-9.52584
นาที	-9.52601
效	-9.52607
W	-9.52629
ได้เลย	-9.52654
้ว	-9.52702
院	-9.52761
ของข้า	-9.52836
威	-9.52854
圣	-9.52879
▁当	-9.52889
ไร้	-9.52904
ทําให้ฉัน	-9.52936
กับเธอ	-9.52956
▁Ya	-9.53133
อธิบาย	-9.53153
登	-9.53153
危险	-9.53154
▁ถูก	-9.53155
恶	-9.53171
▁อย่าง	-9.53257
▁วัน	-9.53261
母亲	-9.53263
▁[	-9.5344
ไม่ชอบ	-9.53464
▁ก่อนที่	-9.53507
▁亲爱的	-9.53537
玛	-9.53555
▁能	-9.53578
เจ๋ง	-9.53634
คนนี้	-9.53682
▁你还	-9.53714
ass	-9.53736
ไฮ	-9.53783
任	-9.53839
หวัง	-9.53863
คําสั่ง	-9.53892
根本	-9.53916
這麼	-9.53938
肯	-9.5396
เรื่องนั้น	-9.53969
卫	-9.54027
福	-9.54098
แปลก	-9.54103
而已	-9.54154
节	-9.54156
只能	-9.5416
野	-9.54325
足	-9.54348
▁--	-9.54383
mo	-9.54385
牛	-9.54394
0\3	-9.54413
เพิ่ม	-9.54443
▁ผมก็	-9.54498
00\	-9.54502
ท่า	-9.54521
ข้าม	-9.54548
สิ่งที่คุณ	-9.54576
\3	-9.54587
ตรวจ	-9.54685
▁不管	-9.54706
▁เออ	-9.54715
块	-9.54801
็น	-9.5483
论	-9.54843
แสง	-9.54925
▁可以	-9.54975
还在	-9.55082
▁是我	-9.55116
▁เยี่ยม	-9.55125
มันก็	-9.55134
ปีศาจ	-9.5516
▁你说	-9.55167
bo	-9.55198
一天	-9.55199
ยังมี	-9.55231
เต้น	-9.55259
做了	-9.55317
ine	-9.55348
จา	-9.5542
当时	-9.5544
《	-9.5544
ex	-9.55601
▁st	-9.55603
▁很	-9.55662
疑	-9.55718
》	-9.55721
试	-9.55777
เดอร์	-9.55803
สถานที่	-9.55873
▁co	-9.55941
▁now	-9.55966
露	-9.55977
共	-9.5598
ลึก	-9.56028
ยุ่ง	-9.56085
เต	-9.56113
ลล์	-9.5613
โฮ	-9.56134
见过	-9.56168
ผู้คน	-9.56232
滚	-9.56285
ดีๆ	-9.56543
要去	-9.56573
อด	-9.56576
▁我不能	-9.56626
▁ไม่เอาน่า	-9.56661
▁你不	-9.56738
友	-9.56752
油	-9.56765
▁来	-9.56798
ปา	-9.56857
us	-9.56879
เตรียม	-9.56898
สิ้น	-9.56938
ยอมรับ	-9.56963
▁H	-9.57068
ดีนะ	-9.57109
ของพวกเขา	-9.57236
ig	-9.57277
冷	-9.57346
七	-9.57423
▁หาก	-9.57434
▁♪	-9.57436
สม	-9.57443
▁L	-9.5752
มาหา	-9.57532
ice	-9.57603
พวกเค้า	-9.57635
秘密	-9.5764
人们	-9.57687
▁还是	-9.5776
ny	-9.57763
急	-9.57774
▁g	-9.57788
fscx	-9.5785
fscy	-9.57851
ดิน	-9.5792
เด็กๆ	-9.57959
進	-9.5799
▁哈	-9.58037
你们的	-9.58066
▁我们得	-9.58077
โกรธ	-9.58086
นรก	-9.58198
▁你得	-9.58201
名字	-9.58266
混	-9.58267
▁from	-9.58284
赛	-9.58319
变成	-9.58367
房间	-9.58377
怎么了	-9.58379
▁ทํา	-9.58393
随	-9.58467
模	-9.58501
谈谈	-9.58547
จ้ะ	-9.58646
父亲	-9.58647
na	-9.58771
พูดถูก	-9.58774
▁怎么	-9.58816
คนหนึ่ง	-9.58887
你了	-9.58887
处理	-9.58891
▁因为我	-9.58904
▁คุณกําลัง	-9.58935
ให้นาย	-9.58989
怎么办	-9.59007
V	-9.59022
ลุง	-9.59061
อั	-9.59104
举	-9.59154
是因为	-9.59172
为了	-9.59208
临	-9.59227
ลับ	-9.59237
东	-9.59274
คุย	-9.59293
型	-9.59299
阻止	-9.59301
พลาด	-9.59342
ประมาณ	-9.59372
เขาจะ	-9.59498
很高兴	-9.59556
ต้า	-9.59558
差	-9.59567
~	-9.59591
ake	-9.5966
ธุรกิจ	-9.59664
▁but	-9.59699
ا	-9.59734
▁ไม่นะ	-9.59751
▁จน	-9.59871
▁แซม	-9.59887
目	-9.59931
สบายดี	-9.59958
ร้อย	-9.59958
ผ้า	-9.59966
刻	-9.59982
จะเอา	-9.59985
她们	-9.60009
รอน	-9.60034
▁need	-9.60035
ภายใน	-9.60104
▁對	-9.60112
小子	-9.60228
อ่ะ	-9.60236
▁19	-9.60243
傻	-9.60249
ระดับ	-9.60283
▁That	-9.60288
塞	-9.60325
ดํา	-9.6038
ตัดสินใจ	-9.60418
กับเขา	-9.60459
脱	-9.60469
精	-9.60599
呆	-9.6062
ต่างหาก	-9.60624
เนื้อ	-9.6063
มาร์	-9.60686
斯特	-9.60721
ฮิ	-9.60736
级	-9.60832
	-9.60842
รายงาน	-9.60923
就要	-9.61007
奇怪	-9.61014
ล้าง	-9.61021
ว่าง	-9.61046
里面	-9.61062
架	-9.61135
22\	-9.61138
脸	-9.61141
最好	-9.61171
ff	-9.61228
ถ่าย	-9.61254
พื้น	-9.6135
▁Oh	-9.61355
อัล	-9.61368
护	-9.61397
ป่า	-9.61406
ive	-9.6141
▁可是	-9.61417
▁你們	-9.6148
▁ผมต้อง	-9.61524
那個	-9.61541
你在	-9.61549
พี่ชาย	-9.61569
ร่าง	-9.61588
▁伙计	-9.61698
系	-9.61739
▁time	-9.61815
▁would	-9.61882
คนนั้น	-9.61945
1}	-9.6198
最近	-9.62002
สมอง	-9.62084
ap	-9.6209
牌	-9.62107
90	-9.62115
เหรียญ	-9.62182
任务	-9.62187
注	-9.62221
▁l	-9.62231
▁以	-9.6224
图	-9.62271
ชม	-9.62285
是为了	-9.62286
เกือบ	-9.62339
แจ้ง	-9.62342
你会	-9.62344
▁เธอจะ	-9.62355
在那里	-9.62409
ไม่ควร	-9.62446
汉	-9.62482
这么说	-9.62512
หล่ะ	-9.62536
忘了	-9.62551
ไปด้วย	-9.62567
จําได้	-9.62571
ตายแล้ว	-9.62628
กลิ่น	-9.62633
ที่นาย	-9.62701
▁มันก็	-9.62836
封	-9.62859
票	-9.62859
ที่บ้าน	-9.62925
甚至	-9.62935
博士	-9.62945
ว่าผม	-9.62981
哪里	-9.63043
เหล่านี้	-9.63056
ลํา	-9.63087
衣	-9.63093
座	-9.63103
▁them	-9.63115
เข้าไปใน	-9.63138
ขอร้อง	-9.6326
ภ	-9.63319
有些	-9.63328
伤害	-9.6338
▁ตาม	-9.63398
调查	-9.63415
▁su	-9.63431
▁คุณมี	-9.63454
冰	-9.63465
镇	-9.63465
เฮ	-9.63559
没事	-9.63566
沙	-9.63617
▁จอห์น	-9.63627
กล	-9.63667
▁不用	-9.63679
ม้า	-9.63729
夫人	-9.63733
求你	-9.63735
暴	-9.63742
เธธเธ	-9.63781
它们	-9.63803
พี	-9.63846
▁艾	-9.63864
说什么	-9.63916
导	-9.63993
什么时候	-9.64033
อม	-9.64042
抓住	-9.64079
ess	-9.64266
สัปดาห์	-9.64304
เป็นไงบ้าง	-9.64321
给他	-9.6433
เป็นการ	-9.64333
%	-9.64457
改	-9.64476
够	-9.64553
▁你也	-9.64557
产	-9.64584
?"	-9.64632
▁9	-9.64654
▁我不会	-9.64664
几个	-9.64721
ขน	-9.64732
ที่รัก	-9.64746
才是	-9.6478
敢	-9.64832
在你	-9.6484
▁ที่นี่	-9.64869
เช่น	-9.64992
味	-9.65047
▁妈妈	-9.65137
赶	-9.6514
เรื่องที่	-9.6517
เนอร์	-9.6523
สาร	-9.65234
冲	-9.65305
称	-9.65305
ต้องมี	-9.65356
หลับ	-9.65357
紧	-9.6536
▁不行	-9.6543
ชาติ	-9.65486
▁ผมไม่ได้	-9.65491
อย่างไร	-9.65514
▁will	-9.65537
Hei	-9.65563
▁8	-9.65645
▁ตั้งแต่	-9.65646
เป็นผู้	-9.65663
兵	-9.65679
ta	-9.65758
投	-9.65765
▁say	-9.65791
พลัง	-9.65802
支	-9.65841
家伙	-9.65848
ต้น	-9.65879
เหตุผล	-9.65882
ตําแหน่ง	-9.65926
ec	-9.65948
▁ฉันกําลัง	-9.66068
กรรม	-9.661
游	-9.66155
爾	-9.6616
all	-9.66167
妮	-9.66234
หรอกนะ	-9.66313
็ก	-9.66343
บอกให้	-9.66357
在哪儿	-9.66383
ก็ต้อง	-9.664
รึยัง	-9.66428
ตกลง	-9.66459
▁ผมรู้	-9.66524
▁กําลัง	-9.66537
近	-9.66549
สําเร็จ	-9.66551
▁คุณไม่	-9.66588
เท้า	-9.66595
视	-9.66611
ที่อยู่	-9.66622
▁ปล่อย	-9.66628
认	-9.66654
จิต	-9.66794
▁อี	-9.668
殺	-9.6681
หายใจ	-9.66873
แม้แต่	-9.66889
顶	-9.66943
▁哇	-9.66955
过了	-9.6698
兒	-9.67011
實	-9.67014
Microsoft	-9.67022
於	-9.67022
出现	-9.67032
อย	-9.67103
發	-9.67113
都会	-9.67136
ลาย	-9.67392
▁โทษที	-9.67448
操	-9.67475
ay	-9.67476
	-9.67495
以后	-9.67499
至	-9.67563
▁คุณคิดว่า	-9.67614
完成	-9.67665
不同	-9.67724
养	-9.67733
ไม่เห็น	-9.67816
ม่า	-9.67865
เสี่ยง	-9.67891
航	-9.67891
配	-9.67891
๊ะ	-9.67924
那种	-9.67988
คริส	-9.68031
นก	-9.68035
▁มันไม่ใช่	-9.68042
多久	-9.68042
เเล้ว	-9.6805
的名字	-9.68054
พล	-9.68111
▁แม	-9.68132
速	-9.68194
ดัน	-9.68213
▁7	-9.68246
新的	-9.68442
▁Yeah	-9.68445
解决	-9.68458
我知道	-9.6846
麦	-9.68482
nd	-9.68489
ของเจ้า	-9.6849
เมอร์	-9.68492
角	-9.68498
机会	-9.68515
▁我已经	-9.68564
▁พา	-9.68565
▁เด	-9.68567
จ้าง	-9.68712
▁were	-9.68817
排	-9.68823
探	-9.68906
游戏	-9.68934
▁ฉันหมายถึง	-9.6895
เล็กๆ	-9.68954
ริค	-9.68988
望	-9.69055
了我	-9.69105
คาร์	-9.69152
▁ถ้าฉัน	-9.69168
พัง	-9.6918
給我	-9.69206
土	-9.6925
โรค	-9.69328
พวกนาย	-9.6933
เเ	-9.69338
在我	-9.69353
เดิม	-9.69379
▁给我	-9.69392
ย่า	-9.69409
▁เบ	-9.69435
สู่	-9.69529
ัว	-9.69571
ตรวจสอบ	-9.69576
▁some	-9.6958
▁เข้าใจ	-9.69612
โป	-9.69645
ไม่เข้าใจ	-9.69762
▁his	-9.69776
明天	-9.69801
树	-9.69815
關	-9.69815
香	-9.69815
也许	-9.6989
ครู	-9.69979
มีเรื่อง	-9.69993
ขาด	-9.7002
▁"-	-9.7003
ge	-9.70135
私	-9.70157
▁ดร	-9.70173
▁ระวัง	-9.70186
เกม	-9.70246
ซ่า	-9.70256
打开	-9.70273
โทษ	-9.70286
大人	-9.70291
低	-9.70302
烧	-9.70302
谢谢	-9.70388
同意	-9.70426
理解	-9.70454
What	-9.70458
异	-9.70465
雪	-9.70465
นึก	-9.70474
▁好吗	-9.705
ن	-9.70546
式	-9.70554
ก็ยัง	-9.70584
段	-9.70632
第二	-9.70635
โปรด	-9.70695
整个	-9.70699
剧	-9.70709
蒙	-9.70709
ขับรถ	-9.7075
特别	-9.70767
ษ	-9.70774
目标	-9.70797
中的	-9.70808
锁	-9.70873
▁我来	-9.70874
▁我们会	-9.7092
菲	-9.70929
底	-9.70956
▁หา	-9.70969
找到了	-9.70982
▁เดี๋ยวก่อน	-9.70995
▁ถ้าเรา	-9.70998
ยาว	-9.70999
วันที่	-9.71051
▁ว่าไง	-9.71071
生命	-9.71178
歌	-9.71184
▁เร็ว	-9.71209
自由	-9.71249
▁แต่เรา	-9.7128
ก้า	-9.71337
▁ฟัง	-9.71364
โท	-9.71379
ออ	-9.7141
บู	-9.71478
เธอจะ	-9.71484
留下	-9.71513
念	-9.71538
还要	-9.7159
▁มีคน	-9.71618
的生活	-9.71673
联系	-9.71699
存在	-9.71715
▁she	-9.71741
▁ใช่แล้ว	-9.71765
骗	-9.71865
ทะเล	-9.71942
▁could	-9.72025
现	-9.72072
▁不知道	-9.72108
▁又	-9.72134
เลน	-9.72189
จะตาย	-9.72217
	-9.72273
▁Ma	-9.72279
▁长官	-9.72396
hi	-9.724
國	-9.72416
ทําตาม	-9.72435
รบ	-9.72472
▁我现在	-9.72479
走吧	-9.72483
▁if	-9.72542
智	-9.72606
吸血鬼	-9.72689
มากมาย	-9.72708
红	-9.72758
▁และคุณ	-9.72774
系统	-9.72776
ปลา	-9.72791
菜	-9.72856
▁St	-9.72912
▁你不能	-9.72939
บันทึก	-9.72939
ตรา	-9.72961
▁มิ	-9.72964
ไว	-9.72981
ทันที	-9.73012
ได	-9.73012
ให้กับ	-9.73015
อารมณ์	-9.73023
盖	-9.73023
错了	-9.73059
ดีขึ้น	-9.73127
▁did	-9.73146
▁我是说	-9.73186
เกอร์	-9.73191
▁คง	-9.73258
ทุกๆ	-9.73281
是一个	-9.73291
▁เวลา	-9.73309
是否	-9.73316
แพ	-9.73321
จี	-9.73368
妳	-9.73404
恨	-9.73441
喜歡	-9.73442
ซอ	-9.73448
พวกเธอ	-9.73463
เธญ	-9.73496
แยก	-9.73511
ความรัก	-9.73512
结果	-9.73541
op	-9.73628
▁ทั้ง	-9.73657
琌	-9.73694
铁	-9.73694
▁อยาก	-9.73718
魔	-9.73726
ให้ได้	-9.7374
45	-9.7375
▁ขอโทษ	-9.73827
;	-9.73862
40	-9.73928
ความรู้สึก	-9.73978
▁เรากําลัง	-9.73996
▁man	-9.74047
刚刚	-9.74064
เหมือนกับ	-9.7408
แท	-9.74089
陪	-9.74103
ear	-9.74105
绝对	-9.74113
刚才	-9.74123
ยาน	-9.74159
梅	-9.74284
มาให้	-9.74322
ลด	-9.74351
丁	-9.74369
办法	-9.74381
ในห้อง	-9.74469
食	-9.74519
ทําแบบนี้	-9.74533
组织	-9.74539
▁คิดว่า	-9.74541
不在	-9.74552
這些	-9.74699
มากๆ	-9.7474
co	-9.74758
เรียกว่า	-9.7482
ส่วนตัว	-9.74837
ke	-9.74859
ag	-9.74864
▁你看	-9.74929
คอน	-9.74933
刀	-9.74964
和他	-9.75
สูญเสีย	-9.75019
bu	-9.75024
ไม่มีทาง	-9.75028
ぃ	-9.75049
▁看来	-9.75052
▁look	-9.75055
▁หลังจาก	-9.75073
▁คา	-9.75125
▁我需要	-9.75144
保持	-9.75146
11	-9.75233
助	-9.75279
手机	-9.75339
▁因為	-9.7534
▁พูด	-9.75388
▁และผม	-9.7545
▁为了	-9.75475
佛	-9.75476
失去	-9.75519
就像	-9.75614
▁ma	-9.75621
▁who	-9.75634
จง	-9.75636
抗	-9.75648
确实	-9.7567
ี่ย	-9.75723
est	-9.75787
你知道	-9.75804
结束	-9.75835
▁让	-9.75845
跟他	-9.75873
具	-9.7595
ต้องการอะไร	-9.75971
质	-9.75991
▁他在	-9.76022
ว่าทําไม	-9.76049
50	-9.7609
เส้น	-9.76101
ฉันไป	-9.76132
我在	-9.76152
屋	-9.76165
▁我说	-9.76215
在那	-9.76238
组	-9.76253
ดีมาก	-9.76255
อาการ	-9.76318
▁謝謝	-9.76344
เนีย	-9.76366
ng	-9.76399
▁แต่ว่า	-9.76411
存	-9.76431
di	-9.76587
pos	-9.76606
▁ฉันไม่อยาก	-9.76624
คําถาม	-9.76661
ist	-9.76672
▁So	-9.76723
▁現在	-9.76798
ประจํา	-9.76814
ื่อ	-9.7682
打电话	-9.76941
จะฆ่า	-9.76946
หน	-9.76982
看到了	-9.77012
并不	-9.77043
散	-9.77117
เป้าหมาย	-9.77131
กาย	-9.77147
เป็นไปได้	-9.77151
่อน	-9.77151
ก้าว	-9.77199
ของมัน	-9.77201
里的	-9.77211
不太	-9.77322
▁ส่วน	-9.77343
dy	-9.77362
โทรมา	-9.77449
มันได้	-9.77499
鸡	-9.77553
誰	-9.77613
๊อ	-9.77673
▁ขอโทษนะ	-9.77705
去哪	-9.77735
he	-9.77743
讓我	-9.77774
學	-9.77811
And	-9.77855
end	-9.77861
ที่เหลือ	-9.77893
我不	-9.77951
上面	-9.77992
ครั้งแรก	-9.77993
▁ยังไง	-9.78018
▁as	-9.78024
จะช่วย	-9.78024
杰克	-9.78064
确定	-9.78113
ee	-9.78171
这边	-9.78251
▁и	-9.7829
▁我去	-9.78297
糟	-9.78343
กัด	-9.78405
หวังว่า	-9.78408
▁มอง	-9.78455
แก้	-9.78455
สิ่งนี้	-9.78522
并	-9.78599
ก็แค่	-9.78599
ver	-9.78612
แท้	-9.78625
俩	-9.78631
观	-9.78694
考	-9.78778
参加	-9.78817
▁ว้าว	-9.78875
เธฒ	-9.78876
更多	-9.78877
ยู	-9.78907
▁V	-9.78946
ก็มี	-9.78959
扔	-9.78962
จะบอก	-9.78972
j	-9.79036
เราต้อง	-9.79078
็บ	-9.79081
อยู่ที่นั่น	-9.79132
该死的	-9.79169
死亡	-9.79169
小孩	-9.7919
บอกผม	-9.79226
▁ลอง	-9.79264
ยอด	-9.79274
▁ไม่รู้สิ	-9.79291
tt	-9.79296
知道你	-9.79364
其他人	-9.79365
ขอให้	-9.79391
ทัน	-9.79396
นึกว่า	-9.79397
ทอง	-9.79448
这样的	-9.79454
你能	-9.79467
源	-9.79496
躲	-9.79496
ยาม	-9.79511
▁什麼	-9.7954
够了	-9.79599
นี่มัน	-9.79683
我能	-9.79714
กุญแจ	-9.79764
借	-9.79764
▁good	-9.79777
▁แต่ถ้า	-9.798
ซึ่ง	-9.79824
去吧	-9.79861
▁ไง	-9.7996
拿到	-9.79964
ราคา	-9.79982
一种	-9.7999
▁เห็น	-9.79995
不需要	-9.80019
努力	-9.80034
▁Come	-9.8005
▁going	-9.80078
感谢	-9.80102
任何人	-9.8012
เชิญ	-9.80126
▁ข้าจะ	-9.80141
在乎	-9.8015
立	-9.80192
保证	-9.80193
เกาะ	-9.80212
สุ	-9.80228
▁an	-9.80238
สุดยอด	-9.80247
12	-9.80277
ค่อย	-9.80281
鲁	-9.80285
有多	-9.80309
▁这不是	-9.80315
ทําตัว	-9.80321
มีเวลา	-9.80357
เราก็	-9.80408
ไม่ยอม	-9.80419
ever	-9.80434
止	-9.80445
思	-9.80456
太太	-9.80482
หรือไง	-9.80491
หลัก	-9.80511
▁Co	-9.80537
ไปถึง	-9.8055
โจมตี	-9.80572
แกน	-9.8058
ation	-9.80673
解释	-9.80725
礼	-9.80746
双	-9.80752
了你	-9.80784
▁大家	-9.80827
ชี	-9.8083
境	-9.80839
東西	-9.80937
遇	-9.80942
ers	-9.80943
กร	-9.80956
唯一	-9.80967
สบาย	-9.80989
เท่าที่	-9.80998
泰	-9.81016
说你	-9.81079
แข่ง	-9.81114
เขาไป	-9.81122
正常	-9.81167
木	-9.81205
骨	-9.81205
昨晚	-9.8121
เกล	-9.81234
飞机	-9.81251
	-9.81298
ak	-9.81311
ไท	-9.81367
ป่วย	-9.81386
秒	-9.81386
腿	-9.81386
รหัส	-9.81386
▁走吧	-9.81404
研究	-9.81477
丈夫	-9.81478
應該	-9.81481
出了	-9.81506
จากการ	-9.81508
第一次	-9.81537
หัน	-9.81538
พ่อแม่	-9.81549
那是	-9.81554
▁จํา	-9.81564
หก	-9.81579
old	-9.81584
▁Do	-9.8161
ขึ้นไป	-9.81617
機	-9.81621
岛	-9.81659
อาร์	-9.81736
有一	-9.81736
สะ	-9.81737
เมา	-9.81738
วิธีการ	-9.81739
牙	-9.8175
ให้มัน	-9.81763
這裡	-9.8178
ก่อ	-9.81826
醒	-9.81834
▁take	-9.81853
มั่น	-9.8189
ทําให้คุณ	-9.81891
消	-9.81926
เฝ้า	-9.81933
เอล	-9.81947
โคล	-9.81954
ชิ้น	-9.81955
คําตอบ	-9.81956
瓦	-9.82024
ป้า	-9.82034
รู้เรื่อง	-9.82139
都在	-9.82142
มากขึ้น	-9.8219
▁แต่เขา	-9.82202
มอ	-9.82214
เผา	-9.82231
สงบ	-9.82236
个人	-9.82236
▁宝贝	-9.82277
初	-9.82299
จําเป็นต้อง	-9.82313
▁ฉันจะไป	-9.82348
จะไปไหน	-9.82349
会有	-9.82377
ด้วยนะ	-9.82415
喜	-9.82475
หลักฐาน	-9.82488
จุ	-9.82503
แสน	-9.82506
克斯	-9.82516
为你	-9.82528
沒事	-9.82556
唱	-9.82569
赌	-9.82575
我也	-9.82591
น้อง	-9.82613
ฝ่าย	-9.82717
▁อ้อ	-9.8272
ได้ไง	-9.82726
感到	-9.82732
เอาไป	-9.82755
▁ค่ะ	-9.82759
聪明	-9.82759
ion	-9.82769
หลบ	-9.82776
就在	-9.82804
▁ทั้งหมด	-9.82824
直接	-9.82824
แอบ	-9.82828
ท้อง	-9.82847
▁our	-9.82893
板	-9.82901
แนะนํา	-9.82921
慢	-9.82932
来说	-9.82985
可能是	-9.82989
▁并	-9.83057
不该	-9.83058
宝贝	-9.83064
学校	-9.83086
▁那我	-9.83101
▁那些	-9.83129
ia	-9.83134
▁sp	-9.83139
▁等一下	-9.83143
▁15	-9.83148
ไม่รู้ว่า	-9.83222
地球	-9.83264
笔	-9.83313
忍	-9.83406
เจ้าหน้าที่	-9.83465
▁没事	-9.8348
▁งั้นก็	-9.83491
词	-9.83498
▁Ha	-9.83525
ก็ตาม	-9.83548
▁Hey	-9.83559
搬	-9.83591
▁been	-9.83608
棒	-9.83625
กับการ	-9.83628
ี้ย	-9.83704
หละ	-9.83773
งี้	-9.83782
เธอไป	-9.83801
箱	-9.83861
▁พร้อม	-9.8389
不喜欢	-9.83957
惊	-9.83958
	-9.83963
เป็นแค่	-9.83996
還是	-9.84018
赢	-9.84032
เดี๋ยว	-9.84115
ร้า	-9.84151
เขาก็	-9.84157
星期	-9.84177
你想	-9.84231
琳	-9.84244
信息	-9.84258
อ่อน	-9.84336
ตร	-9.8436
ตรงนั้น	-9.84395
计	-9.84416
▁เจ	-9.84436
多了	-9.84448
消息	-9.84453
คู	-9.84526
รั	-9.84532
em	-9.84544
รีบ	-9.84593
▁นายจะ	-9.84607
负责	-9.84667
สาบาน	-9.84712
16	-9.84722
简单	-9.8481
▁ฉันชอบ	-9.84868
มอน	-9.84873
善	-9.849
ลี่	-9.84912
หน้าที่	-9.84982
标	-9.84988
▁how	-9.85012
伴	-9.85013
有一个	-9.85026
父母	-9.8504
一直在	-9.85064
pp	-9.85069
มุ	-9.85076
เวร	-9.85097
国王	-9.8511
่วง	-9.85117
ทน	-9.85133
▁come	-9.85143
▁con	-9.85149
ฉันก็	-9.85173
希	-9.85176
抱	-9.85181
库	-9.85182
小心	-9.85187
是你的	-9.8522
ความผิด	-9.85254
ชู	-9.85274
怎么做	-9.85277
โรงพยาบาล	-9.85281
หู	-9.85284
ซาน	-9.85341
30	-9.85351
เป็นยังไง	-9.85355
▁对吧	-9.85394
กล่อง	-9.85447
进行	-9.85452
um	-9.85499
快点	-9.85511
ศาล	-9.85563
男孩	-9.8557
▁เกี่ยวกับ	-9.85577
หลอก	-9.85588
▁ใช่ไหม	-9.85623
กับเรา	-9.85625
มั้ง	-9.85669
โว	-9.85682
โยน	-9.85687
层	-9.85751
กุ	-9.85783
校	-9.85795
ที่เป็น	-9.8581
休	-9.85842
放下	-9.85851
ทั้งนั้น	-9.85875
邊	-9.85941
▁เธอเป็น	-9.86007
狂	-9.86032
若	-9.86036
课	-9.86036
一定要	-9.86081
是真的	-9.86099
治	-9.86101
ยังไม่ได้	-9.86127
蠢	-9.86131
ดุ	-9.86188
ep	-9.86205
完了	-9.86219
หลง	-9.86229
年前	-9.86317
ที่ได้	-9.86352
เศร้า	-9.86418
挑	-9.86418
没错	-9.86481
输	-9.86513
▁But	-9.86515
曾经	-9.86526
上了	-9.86526
เงียบ	-9.86545
ถึงเวลา	-9.86547
▁再见	-9.86584
冒	-9.86606
กองทัพ	-9.86613
疯了	-9.86646
摩	-9.86697
問題	-9.86705
เธข	-9.86709
了一	-9.86794
逼	-9.86801
โต๊ะ	-9.86817
ด้วยซ้ํา	-9.86821
成功	-9.8689
25	-9.86925
▁th	-9.86936
▁จริงเหรอ	-9.86947
ow	-9.86965
อนุญาต	-9.86994
น้องชาย	-9.86997
บัตร	-9.86999
要求	-9.87012
代表	-9.87049
▁พวกคุณ	-9.87055
职	-9.87081
ปาร์ตี้	-9.87089
博	-9.87172
▁我没有	-9.87181
众	-9.87185
床	-9.87185
เขต	-9.87199
开枪	-9.87213
▁ดูเหมือน	-9.87253
为什么要	-9.87265
致	-9.87275
แห	-9.87275
ผี	-9.87415
的孩子	-9.87416
กระสุน	-9.87571
ห้าม	-9.87611
แถว	-9.87625
▁只	-9.87748
另一	-9.87784
太多	-9.87797
ทราบ	-9.87798
▁不好意思	-9.87862
▁เอาละ	-9.87867
ไม่กี่	-9.87901
ตู้	-9.87933
暗	-9.87941
เรื่องอะไร	-9.87947
一位	-9.87968
ของตัวเอง	-9.87978
▁ถ้าเธอ	-9.88061
降	-9.88142
把她	-9.8821
华	-9.8825
国家	-9.88277
▁其实	-9.8836
个月	-9.88371
กันเถอะ	-9.88468
▁แอ	-9.88477
各	-9.88508
重新	-9.88539
เมื่อคืน	-9.88555
pe	-9.88568
▁off	-9.88594
哥哥	-9.88597
之间	-9.88619
恐	-9.88639
กษัตริย์	-9.8864
战争	-9.88654
上去	-9.8868
▁你真	-9.88713
什么意思	-9.88735
▁ช่าง	-9.88746
man	-9.88765
测	-9.88828
่อง	-9.889
屁	-9.88931
เที่ยว	-9.88937
群	-9.88962
馬	-9.88986
เธดเธ	-9.89033
od	-9.8907
建	-9.89073
示	-9.89111
	-9.8913
纽约	-9.89132
让我们	-9.89144
ล็อค	-9.89185
▁อาจจะ	-9.89201
หนีไป	-9.8921
ราช	-9.89219
埃	-9.89228
检查	-9.89239
且	-9.89294
ตอนนั้น	-9.89368
จะพูด	-9.89385
谢	-9.8952
▁อย่างน้อย	-9.89531
็กซ์	-9.89569
หมดแล้ว	-9.89581
咖啡	-9.89622
▁way	-9.89653
能不能	-9.8972
พยายามจะ	-9.89818
เหยื่อ	-9.89819
เช็ค	-9.89837
กว่านี้	-9.89878
容	-9.89896
设	-9.89933
ที่ไม่	-9.89961
มู	-9.90025
你自己	-9.90058
哭	-9.90116
其中	-9.90128
▁没人	-9.90136
▁ทุก	-9.90171
▁小心	-9.90172
政府	-9.90216
照顾	-9.90224
It	-9.90281
."	-9.9029
ตั้งใจ	-9.90312
เธฃ	-9.90429
通过	-9.90453
也没	-9.90492
ไปเถอะ	-9.90589
จอ	-9.90589
แวมไพร์	-9.90613
来这里	-9.90616
มีแต่	-9.90633
不再	-9.90657
饭	-9.90668
โย	-9.90698
列	-9.90713
▁สอง	-9.90731
รักคุณ	-9.90813
ของการ	-9.90862
酷	-9.90913
的吗	-9.90931
见到	-9.90933
那儿	-9.90978
持	-9.90989
ขัด	-9.91011
▁ส่ง	-9.91048
นักสืบ	-9.91068
ก็รู้	-9.91158
母	-9.91196
เป็นเด็ก	-9.91229
ma	-9.91257
ก็เป็น	-9.91282
进入	-9.91298
难道	-9.91316
uck	-9.91333
▁จากนั้น	-9.91392
更好	-9.9145
แซ	-9.91479
เป็นคนที่	-9.91495
▁至少	-9.91556
มืด	-9.9156
▁n	-9.916
กล้อง	-9.9162
เรน	-9.91626
▁12	-9.91633
ฟัน	-9.91694
素	-9.91716
▁30	-9.91719
ตึก	-9.91753
杀人	-9.91796
นิค	-9.91815
時間	-9.91825
▁make	-9.91832
มอบ	-9.9185
▁De	-9.91855
静	-9.91867
比赛	-9.91869
▁是你	-9.91946
务	-9.91976
ค้นหา	-9.91994
觉	-9.91999
鸟	-9.92018
▁ดูสิ	-9.92062
戏	-9.92113
โรงแรม	-9.92119
ช่วยฉัน	-9.92166
▁พวกนาย	-9.92168
▁想	-9.9218
信任	-9.92251
ไม่ได้หรอก	-9.92281
抱歉	-9.92298
ome	-9.92302
อนาคต	-9.92322
开玩笑	-9.92348
都没有	-9.92401
▁แค	-9.92415
族	-9.92441
ต้องการที่จะ	-9.92457
▁但是我	-9.92468
แช	-9.92498
▁可能	-9.92544
叫我	-9.92552
คุณก็	-9.92555
วอ	-9.92558
猜	-9.92577
▁ไปกันเถอะ	-9.92598
ห่วง	-9.92625
讨厌	-9.92627
冷静	-9.92634
劳	-9.92641
อะไรเลย	-9.92672
ลีย์	-9.9269
เป็นไง	-9.9272
ฮา	-9.92723
草	-9.92728
大概	-9.92754
命令	-9.9276
ผมก็	-9.9279
ต่อสู้	-9.928
ทรง	-9.92838
▁ผมแค่	-9.92893
ใ	-9.92913
微	-9.92932
錢	-9.92932
ca	-9.92964
ust	-9.92987
▁你不是	-9.93018
แผล	-9.93067
14	-9.93076
17	-9.9312
話	-9.93145
per	-9.9317
▁我还	-9.93204
▁ฉันจะไม่	-9.93209
โรง	-9.93209
胜	-9.93238
▁นั่นแหละ	-9.93307
本来	-9.93327
เป็นที่	-9.93347
让他们	-9.93386
▁你为什么	-9.93391
คนนึง	-9.93435
回答	-9.93436
สวรรค์	-9.93443
แม้	-9.93456
▁tell	-9.9346
资	-9.93532
到你	-9.93545
มีใคร	-9.93594
故事	-9.93597
的工作	-9.93599
▁我喜欢	-9.93599
โพ	-9.93612
没什么	-9.93638
▁跟	-9.93741
ค่อนข้าง	-9.93751
ยึด	-9.93752
เปิดประตู	-9.93809
还能	-9.93863
เธอก็	-9.93881
▁ผมมี	-9.93931
ฐาน	-9.9395
วาด	-9.93996
่ะ	-9.94067
证明	-9.94069
就这样	-9.94084
幸	-9.94108
你就	-9.94125
หิว	-9.94165
▁ห	-9.94167
มีชีวิต	-9.94241
价	-9.94253
就可以	-9.94255
อย่างที่	-9.94263
苏	-9.94267
▁直到	-9.943
ast	-9.94324
左	-9.94366
沃	-9.94474
剛	-9.94474
24	-9.94483
mm	-9.94485
▁อีก	-9.94491
แตกต่าง	-9.94542
พิสูจน์	-9.94577
รัฐบาล	-9.94577
放弃	-9.94591
19	-9.94602
▁她是	-9.94647
▁ฉันเป็น	-9.94675
=	-9.94681
กอ	-9.94689
รึไง	-9.94702
FF	-9.94762
▁快走	-9.9477
เธฅ	-9.94773
เรียนรู้	-9.94913
升	-9.94993
▁had	-9.9504
轻	-9.95045
网	-9.95079
真正的	-9.95105
เหอะ	-9.95124
▁ั	-9.9514
▁แต่เธอ	-9.9514
กฎหมาย	-9.95154
归	-9.95201
มันไม่	-9.95226
这件事	-9.95245
后面	-9.95293
to	-9.95299
透	-9.95306
烂	-9.95306
ไปดู	-9.95343
脑	-9.95425
这事	-9.95461
只要	-9.95498
หนึ่งใน	-9.95513
医院	-9.9552
身份	-9.95563
พูดกับ	-9.95574
一樣	-9.95604
oo	-9.95652
ยิ	-9.95691
ประกัน	-9.95703
备	-9.95704
ัต	-9.95714
判	-9.95722
糟糕	-9.95725
知道我	-9.95805
河	-9.95829
贵	-9.95829
城市	-9.95849
สเต	-9.95851
ถอด	-9.95857
氣	-9.95934
▁คุณเป็น	-9.95937
早上	-9.96005
ies	-9.9601
炸	-9.96026
รส	-9.96033
問	-9.96039
▁ผมขอโทษ	-9.96041
爱你	-9.96065
ว่านาย	-9.96066
เลวร้าย	-9.96092
กี	-9.96123
悲	-9.96145
姑娘	-9.96146
ความช่วยเหลือ	-9.96177
▁或许	-9.96199
决	-9.96218
是的	-9.96218
撞	-9.9625
▁ให้ฉัน	-9.96352
▁any	-9.96377
▁用	-9.96439
吸	-9.96449
▁ฉันเห็น	-9.96453
nn	-9.96477
伙	-9.96539
เธงเธ	-9.96554
將	-9.96567
弟弟	-9.9657
นิด	-9.96639
谋杀	-9.96699
▁อ่า	-9.96706
18	-9.96713
ใครบางคน	-9.96748
สนาม	-9.96833
狼	-9.96885
▁down	-9.9689
age	-9.96917
จูบ	-9.96925
剩	-9.96985
臭	-9.96991
▁เค	-9.97003
ป้องกัน	-9.97097
所以	-9.97098
突然	-9.97104
mi	-9.97131
▁Sam	-9.97133
ถอย	-9.97152
能力	-9.97179
争	-9.97188
监狱	-9.97205
干的	-9.97211
每个	-9.97216
ธา	-9.97285
雅	-9.9731
休息	-9.97314
ผิว	-9.97416
猎	-9.97417
處	-9.97417
開始	-9.97423
▁ผมอยาก	-9.97431
呼	-9.97456
ไม่ให้	-9.97489
弱	-9.97523
tor	-9.97546
ต้องการให้	-9.9755
แว	-9.97594
轮	-9.9763
都有	-9.97657
คาด	-9.97684
奖	-9.97737
難	-9.97737
真相	-9.97787
▁by	-9.97809
朝	-9.97844
หลาน	-9.97848
▁罗	-9.97851
很难	-9.97891
ค้า	-9.97892
全部	-9.97932
帕	-9.97951
家庭	-9.97984
ton	-9.97992
คอร์	-9.98016
餐	-9.98024
ด้า	-9.98034
爆	-9.98042
▁ขอบคุณมาก	-9.98125
码	-9.98136
▁ผมไม่รู้	-9.98166
▁ใช่มั้ย	-9.98214
๊า	-9.9823
ข้างนอก	-9.98352
▁ฉันขอ	-9.98359
ที่ต้อง	-9.98394
ure	-9.98461
種	-9.98465
洞	-9.98489
隐	-9.98489
ไม่ต้องการ	-9.98541
▁didn	-9.98572
▁กรุณา	-9.9861
นาม	-9.9862
เครื่องบิน	-9.98647
อีกต่อไป	-9.98698
33	-9.98744
สิทธิ	-9.98795
回来了	-9.98897
都没	-9.98918
▁อ๋อ	-9.98921
▁我希望	-9.98927
▁ฉันบอก	-9.9893
▁我叫	-9.98942
然后	-9.99004
刺	-9.99025
烟	-9.9903
ดีใจที่	-9.99035
ความลับ	-9.99084
มีโอกาส	-9.99121
副	-9.99138
施	-9.99138
杀死	-9.99226
มีบางอย่าง	-9.99237
ภารกิจ	-9.99247
ขัง	-9.99247
หิน	-9.99256
▁虽然	-9.99263
顺	-9.99324
ที่ดีที่สุด	-9.99339
右	-9.9935
เดอะ	-9.99403
เป็นสิ่งที่	-9.99418
联	-9.99454
เดท	-9.99464
兹	-9.99464
欧	-9.99464
营	-9.99464
司	-9.99481
เป็นนัก	-9.99486
นิ้ว	-9.99493
或者	-9.9953
ลบ	-9.99545
▁คุณก็	-9.99568
等着	-9.99581
แลนด์	-9.99584
▁รู้มั้ย	-9.996
别的	-9.99619
钟	-9.99627
办公室	-9.99682
เชอร์	-9.9971
搞定	-9.99753
จะได้รับ	-9.99756
給你	-9.99767
娘	-9.9979
▁每	-9.99807
▁แต่ก็	-9.9988
ุ่ม	-9.99896
เจค	-9.99898
場	-9.999
英雄	-9.99902
▁ไม่มีทาง	-9.99918
▁รู้ไหม	-9.99965
不管	-9.99974
让她	-9.99995
ไว้ใจ	-10.0001
รัฐ	-10.0001
是個	-10.0003
นั่นแหละ	-10.001
外面	-10.0012
派对	-10.0012
▁所有	-10.0015
วิล	-10.0023
总统	-10.0024
จะถูก	-10.0031
大的	-10.0032
ต้องใช้	-10.0032
	-10.0034
痛苦	-10.0034
终于	-10.0036
ph	-10.0037
终	-10.0038
ทําไม่ได้	-10.004
หัวหน้า	-10.0044
不懂	-10.0047
ทู	-10.0054
nt	-10.0055
ทุกวัน	-10.006
เบน	-10.0061
禁	-10.0067
考虑	-10.0067
เหล้า	-10.0069
ตลอดเวลา	-10.0073
ภัย	-10.0073
孩子们	-10.0078
จดหมาย	-10.0079
他妈	-10.0085
no	-10.0086
試	-10.0089
▁when	-10.009
幫	-10.0091
ข้อความ	-10.0093
ช่อง	-10.0094
ของขวัญ	-10.0095
▁ฉันได้	-10.0099
記	-10.01
ถ้าคุณ	-10.01
▁没关系	-10.0101
▁ทําให้	-10.0102
置	-10.0106
▁我们可以	-10.0106
怎么会	-10.0106
▁too	-10.0108
▁นายต้อง	-10.011
很久	-10.0113
ลงมา	-10.012
他是	-10.012
消失	-10.0121
▁ขอให้	-10.0122
▁let	-10.0124
น่ากลัว	-10.013
จอห์น	-10.0132
所有人	-10.0136
ac	-10.0137
คุม	-10.0143
ts	-10.0149
คราว	-10.0156
▁คุณไม่ได้	-10.0157
แทบ	-10.0158
▁ผมขอ	-10.0164
斗	-10.0165
▁老	-10.0166
บังคับ	-10.0167
ออกไปจาก	-10.0167
▁or	-10.017
困	-10.0174
ล้อเล่น	-10.0181
▁จับ	-10.0186
เลว	-10.0188
錯	-10.0192
听说	-10.0198
หมายความว่าไง	-10.0199
亮	-10.02
▁เราก็	-10.0202
แจ	-10.0203
覺得	-10.0206
ซ้าย	-10.0211
กฎ	-10.0217
ทําแบบนั้น	-10.022
ลอย	-10.0222
忘	-10.0222
15	-10.0225
ment	-10.0227
กํา	-10.0228
没人	-10.023
元	-10.0231
丹	-10.0232
作为	-10.0233
ล้ม	-10.0233
席	-10.0234
惹	-10.0234
死的	-10.0237
สิ่งที่ฉัน	-10.0238
แพ้	-10.0241
▁ไอ	-10.0243
▁มันมี	-10.0246
年轻	-10.025
ดีใจ	-10.0251
ยาย	-10.0252
แก้ว	-10.0252
ฝัง	-10.0256
雨	-10.0256
พื้นที่	-10.0257
尸体	-10.0257
ชั่ว	-10.0261
▁เม	-10.0261
对吧	-10.0261
ud	-10.0263
九	-10.0267
▁该死	-10.0268
ั้น	-10.0269
เวน	-10.0272
หน่อยสิ	-10.0273
事实	-10.0274
▁ฉันไม่เคย	-10.0274
ไข	-10.0275
家族	-10.0277
ru	-10.0281
父	-10.0281
โมง	-10.0286
妻子	-10.0288
身体	-10.0288
ฝั่ง	-10.029
▁上帝	-10.029
▁ไม่รู้	-10.0293
13	-10.0293
แซม	-10.0297
女儿	-10.03
电影	-10.0303
อู	-10.0304
อิน	-10.0306
ที่ถูก	-10.0306
เนี่ยนะ	-10.0306
义	-10.0308
傷	-10.0312
	-10.0312
สวม	-10.0313
ื่	-10.0315
ว่าไง	-10.0315
▁ผมว่า	-10.0317
▁ดีน	-10.0319
▁เธอต้อง	-10.0322
▁三	-10.0324
▁天哪	-10.0328
ฉันไม่	-10.0328
那麼	-10.033
แล้วก็	-10.033
▁รู้	-10.0332
รร	-10.0332
มึง	-10.0332
เกี่ยว	-10.0335
วางแผน	-10.0337
主意	-10.0338
▁How	-10.0342
80	-10.0348
否	-10.0363
高兴	-10.0364
想知道	-10.0365
ข้าว	-10.0366
问你	-10.0368
▁过来	-10.0368
ศัตรู	-10.0369
开心	-10.0377
เธงเน	-10.0384
ตรงไหน	-10.0388
เป็นพวก	-10.0388
遇到	-10.0391
He	-10.0391
เจอร์	-10.0395
แล้วกัน	-10.0398
เลยว่า	-10.0401
ก้น	-10.0403
▁something	-10.0403
袋	-10.0412
เสื้อผ้า	-10.0416
เสนอ	-10.0417
未来	-10.0421
▁over	-10.0431
▁我一直	-10.0432
ไพ	-10.0436
吻	-10.0437
碎	-10.0437
員	-10.0437
จะทํายังไง	-10.0442
จะหา	-10.0442
เธฅเน	-10.0443
ไม่นาน	-10.0444
เช่นกัน	-10.0444
โจ	-10.0445
▁เพราะฉัน	-10.0447
证据	-10.0449
ทั้งสอง	-10.045
เดา	-10.0454
ชัดเจน	-10.0459
闪	-10.046
▁little	-10.046
▁像	-10.047
奶	-10.0471
▁เชิญ	-10.0471
▁โจ	-10.0472
ในชีวิต	-10.0473
▁ขอบคุณครับ	-10.0475
闻	-10.0477
▁okay	-10.0483
牢	-10.0483
ยืนยัน	-10.0495
糖	-10.0495
▁求你了	-10.0501
ออกมาจาก	-10.0502
不对	-10.0506
▁放	-10.0506
รถไฟ	-10.0512
哪儿	-10.0513
สต์	-10.0513
ปิ	-10.0513
拖	-10.0518
เทพ	-10.052
ไมล์	-10.052
类	-10.0523
มันไป	-10.0523
结婚	-10.0524
กับพวก	-10.0526
ah	-10.0527
中心	-10.0529
也会	-10.0534
ประหลาด	-10.0536
ตุ	-10.0537
从没	-10.0537
的朋友	-10.0538
▁告诉我	-10.0546
来自	-10.0548
67	-10.0548
โก้	-10.0548
激	-10.0548
为何	-10.0548
▁你现在	-10.055
ค์	-10.0558
印	-10.0561
吵	-10.0564
限	-10.0564
饿	-10.0564
ของท่าน	-10.0566
จีน	-10.0566
安排	-10.0568
▁所以你	-10.0569
ไ	-10.057
็อก	-10.057
ธิ	-10.0571
มั	-10.0574
ช่วยชีวิต	-10.0574
默	-10.0575
สวน	-10.0577
อยากรู้	-10.0577
วินาที	-10.0578
▁ได้ยิน	-10.0583
跟你说	-10.0584
▁หล่อน	-10.0584
扯	-10.0587
沉	-10.0587
理由	-10.0598
▁dr	-10.0604
ทุกสิ่ง	-10.0607
66	-10.0617
想想	-10.0618
ish	-10.062
▁我们都	-10.0637
回來	-10.0639
คลา	-10.0639
▁Well	-10.0645
盘	-10.0645
กาแฟ	-10.066
可爱	-10.0667
了嗎	-10.0668
ร่างกาย	-10.067
พิษ	-10.067
แม่ง	-10.0676
▁他会	-10.0678
的问题	-10.068
抽	-10.068
ขนาด	-10.0691
ปรับ	-10.0691
▁我看	-10.0692
อเมริกา	-10.0692
戰	-10.0692
▁more	-10.0693
媽	-10.0702
ฤ	-10.0704
▁卡	-10.0704
▁今晚	-10.0704
▁thing	-10.0711
ภาษา	-10.0715
ประโยชน์	-10.0717
เกียรติ	-10.0717
老爸	-10.0719
还活着	-10.0721
▁ไม่ว่า	-10.0726
霍	-10.0727
ก็ไม่ได้	-10.0735
มาจากไหน	-10.0737
瑟	-10.0739
มุม	-10.0743
人都	-10.0744
No	-10.0744
เจน	-10.0745
▁วาง	-10.0748
是怎么	-10.0749
ไปทาง	-10.0749
เธกเธ	-10.0749
ยั	-10.075
ได้ว่า	-10.0753
▁mean	-10.0754
น้องสาว	-10.0754
▁你和	-10.0755
▁ฉันทํา	-10.0757
▁j	-10.0763
กําแพง	-10.0775
了一个	-10.0776
ดาบ	-10.0781
▁你应该	-10.0782
เคน	-10.0783
แขน	-10.0788
ไม่จําเป็นต้อง	-10.0792
▁我真	-10.0794
ขนาดนั้น	-10.0795
容易	-10.0795
园	-10.0797
ค้น	-10.0798
ตื่นเต้น	-10.08
▁หมอ	-10.0807
งี่เง่า	-10.081
ครั้งสุดท้าย	-10.081
ล่อ	-10.0816
เธช	-10.0816
สมควร	-10.0817
录	-10.0817
▁他说	-10.0821
ที่ผ่านมา	-10.0821
的时间	-10.0822
猫	-10.0822
一条	-10.0825
CE	-10.0825
▁我會	-10.083
มานี่	-10.083
We	-10.0834
▁Let	-10.0838
▁马	-10.0845
ปฏิเสธ	-10.0846
鞋	-10.0846
ไปซะ	-10.0847
银行	-10.0848
ทอด	-10.0852
เดน	-10.0853
ี่	-10.0855
▁除非	-10.0858
昨天	-10.0859
ti	-10.0864
▁我们在	-10.0865
ไปยัง	-10.0867
硬	-10.087
▁我猜	-10.0871
必	-10.0873
社	-10.088
凡	-10.0882
▁work	-10.0882
อดีต	-10.0882
เบล	-10.0888
Z	-10.0894
โต้	-10.0895
家里	-10.0897
res	-10.0899
บอกเธอ	-10.0899
ห่า	-10.09
▁ใจเย็น	-10.09
ในตัว	-10.0906
老兄	-10.0907
老婆	-10.0908
▁She	-10.0908
不起	-10.0909
เอามัน	-10.0915
▁love	-10.0916
想到	-10.0917
镜	-10.0917
ster	-10.0925
这次	-10.0928
อาจารย์	-10.0929
อาย	-10.093
มิน	-10.0935
专	-10.0935
的意思	-10.0936
▁เราไม่	-10.0938
对了	-10.0939
▁喔	-10.094
คิ	-10.0941
恶魔	-10.0943
▁หุบปาก	-10.0943
▁มาเร็ว	-10.0947
秀	-10.0954
▁ถ้านาย	-10.0959
ท่อ	-10.0965
坐下	-10.0965
จะพา	-10.0966
▁ทีนี้	-10.0972
ทางนี้	-10.0974
生日	-10.0974
แฮ	-10.0974
ถุง	-10.0978
▁ชีวิต	-10.0981
แลน	-10.0986
▁Be	-10.0988
ab	-10.099
พึ่ง	-10.099
一只	-10.099
มักจะ	-10.0996
ต่ํา	-10.1002
灯	-10.1002
ธรรมดา	-10.1003
这一切	-10.1004
โคร	-10.1005
๊ย	-10.1009
巨	-10.1013
▁นอกจาก	-10.1018
▁ไม่เคย	-10.1021
放在	-10.1024
富	-10.1026
▁โร	-10.1026
โชว์	-10.1027
พระองค์	-10.1027
人生	-10.1035
ฆาตกรรม	-10.1038
幾	-10.1038
กับมัน	-10.1042
คงต้อง	-10.1043
老师	-10.1049
夏	-10.105
ang	-10.105
สถานการณ์	-10.1051
探员	-10.1053
加入	-10.1059
的女人	-10.106
間	-10.1061
抢	-10.1062
夠	-10.1063
曲	-10.1063
雇	-10.1063
压	-10.1072
พอดี	-10.1075
▁ฮัลโหล	-10.1075
▁多	-10.1075
呼吸	-10.1075
对不起	-10.1077
อํานาจ	-10.1078
▁我都	-10.108
ni	-10.1082
▁เปิด	-10.1083
快乐	-10.1083
带着	-10.1084
▁มีใคร	-10.1086
黄	-10.1087
ของแก	-10.1088
ล้อ	-10.1089
ance	-10.1098
墙	-10.1099
ga	-10.11
ดีที่สุด	-10.1107
เลยล่ะ	-10.1108
件事	-10.1108
签	-10.1111
ดวง	-10.1113
▁我只	-10.1118
功	-10.1121
▁เหมือนกับ	-10.1121
▁pa	-10.1122
เหล็ก	-10.1124
▁ห้าม	-10.1124
▁ชื่อ	-10.1128
เคยเป็น	-10.113
完美	-10.1132
可不	-10.1134
信号	-10.1134
ทําให้มัน	-10.1134
规	-10.1135
รางวัล	-10.1136
號	-10.1136
ของพ่อ	-10.1137
随便	-10.1137
出來	-10.1138
▁พวกเขาจะ	-10.1142
็ต	-10.1144
ขาว	-10.1148
试试	-10.1149
ลาก	-10.1154
หลังจาก	-10.1156
找你	-10.1156
不可	-10.1157
款	-10.116
▁จนกว่า	-10.1161
微软雅黑	-10.1173
残	-10.1173
▁ไม่งั้น	-10.1181
สภาพ	-10.1181
希望你	-10.1188
原因	-10.1192
เซ็น	-10.1194
可不是	-10.1196
▁ดีมาก	-10.1196
▁非常	-10.1197
หัวเราะ	-10.1197
ที่นี้	-10.1201
再说	-10.1203
經	-10.1208
救了	-10.1211
ั่ว	-10.1212
สําหรับการ	-10.1216
ดอล	-10.1217
สังหาร	-10.1217
▁他们会	-10.122
徒	-10.1222
势	-10.1222
▁Ca	-10.1222
▁妳	-10.1228
些什么	-10.123
识	-10.1231
交易	-10.1236
的那	-10.1237
旦	-10.1247
疯狂	-10.1247
นี่แหละ	-10.1248
说我	-10.1257
▁เฮ้ย	-10.1258
粉	-10.1259
ตน	-10.1263
๊บ	-10.1271
技	-10.1271
醉	-10.1272
变得	-10.1273
ฉันได้	-10.1276
มะ	-10.1277
▁因为你	-10.128
▁เจ้าหน้าที่	-10.1281
敬	-10.1284
▁但他	-10.1285
สืบ	-10.1285
ลด์	-10.1287
แม	-10.1293
弟	-10.1295
一切都	-10.1295
翻	-10.1296
剑	-10.1297
祝	-10.1299
แน	-10.1303
大学	-10.1304
เทอร์	-10.1304
有很多	-10.1307
▁เขาไม่	-10.1308
ระยะ	-10.131
答应	-10.1313
,000	-10.1319
門	-10.1321
▁安	-10.1324
if	-10.1331
妙	-10.1334
วิธีที่	-10.1336
cHC	-10.1337
ฉันเอง	-10.1343
身边	-10.1343
▁就算	-10.1344
景	-10.1346
良	-10.1346
听起来	-10.1348
เอ๊ย	-10.1349
เป็นยังไงบ้าง	-10.1349
คม	-10.1351
▁นาง	-10.1352
rn	-10.1354
▁Ro	-10.1355
▁我们是	-10.1356
กําจัด	-10.1364
นายจะ	-10.1369
生意	-10.137
核	-10.1372
音乐	-10.1373
ไว้ใน	-10.1374
ได้นะ	-10.1375
คุณได้	-10.1377
ฟรี	-10.1379
ไหว	-10.138
宝	-10.1382
บอกอะไร	-10.1393
瞧	-10.1396
go	-10.1396
▁เริ่ม	-10.1401
ไต	-10.1419
▁black	-10.1422
▁This	-10.1423
确	-10.1427
มาตลอด	-10.1429
หนาว	-10.1431
咱	-10.1432
ประชุม	-10.1435
吹	-10.1435
▁没什么	-10.1436
那天	-10.1441
住在	-10.1442
寻	-10.1443
▁除了	-10.1444
▁than	-10.1446
หลุม	-10.1447
สด	-10.1448
น่าสนใจ	-10.1452
เป็นห่วง	-10.1453
der	-10.1455
ยังอยู่	-10.1456
ส่วนใหญ่	-10.1458
麻	-10.1459
結	-10.146
ปีเตอร์	-10.146
و	-10.146
▁你这	-10.1463
照片	-10.147
避	-10.1472
巧	-10.1473
เอกสาร	-10.1473
律师	-10.1473
ชัก	-10.1474
va	-10.1475
报告	-10.1475
我了	-10.1478
ซุ	-10.148
眼睛	-10.1482
ประธาน	-10.1485
ผ่าตัด	-10.1486
▁走	-10.1487
แดง	-10.1488
ง่ายๆ	-10.149
最好的	-10.1492
หาทาง	-10.1494
ธรรม	-10.1496
หัก	-10.1496
▁และก็	-10.1497
ลําบาก	-10.1498
de	-10.1498
▁我们的	-10.1499
▁ขอบคุณค่ะ	-10.15
短	-10.1509
幕	-10.1511
皇	-10.1511
「	-10.1511
เขาได้	-10.1513
了我的	-10.1514
ช่วงเวลา	-10.1518
圈	-10.1523
累	-10.1523
รองเท้า	-10.1524
ร่วมเพศ	-10.1524
เฉ	-10.1531
วู	-10.1532
▁Al	-10.1536
เอ็ด	-10.1542
▁พวกนั้น	-10.1543
ดอน	-10.1546
Why	-10.1549
ยุ	-10.1553
事件	-10.1554
像是	-10.1557
เอก	-10.1559
再来	-10.1563
▁Mar	-10.1569
แน่ใจว่า	-10.1571
的時候	-10.1572
目的	-10.1572
เร็วๆ	-10.1573
แค่นั้น	-10.1574
姐姐	-10.1575
太棒了	-10.1576
约会	-10.1576
คลับ	-10.1582
目前	-10.1583
ฆาตกร	-10.1587
ภาค	-10.1593
สถานี	-10.1597
醫生	-10.1601
▁我也是	-10.1605
▁call	-10.1606
▁我很抱歉	-10.1607
แนว	-10.1608
使用	-10.1611
一步	-10.1612
เคร	-10.1613
▁太好了	-10.1614
▁他的	-10.1614
วิญญาณ	-10.1625
บริสุทธิ์	-10.1626
ไม่เชื่อ	-10.1628
กันแล้ว	-10.1629
ทํายังไง	-10.163
คําพูด	-10.163
มีด	-10.1632
樂	-10.1639
3300}	-10.1639
ความตาย	-10.165
补	-10.1652
คือการ	-10.1654
精神	-10.1662
ยิ้ม	-10.1666
rial	-10.1669
服务	-10.1669
负	-10.1671
ขณะ	-10.1672
م	-10.1678
อุบัติเหตุ	-10.1678
遭	-10.1678
附近	-10.1678
▁它们	-10.1679
ต้องเป็น	-10.1682
มอร์	-10.1684
电视	-10.1684
如果你	-10.1685
拥有	-10.1685
นิ่ง	-10.1687
三个	-10.1688
เป็นตัว	-10.169
掉了	-10.1691
不必	-10.1695
准备好	-10.1698
ประกาศ	-10.1703
陛下	-10.1703
▁มาเถอะ	-10.171
发现了	-10.171
ทําอย่างนั้น	-10.1711
ل	-10.1716
算了	-10.1718
▁ผมกําลัง	-10.1722
เหตุผลที่	-10.1722
▁不然	-10.1723
ไข่	-10.1724
一场	-10.1724
ด่วน	-10.1724
ศูนย์	-10.1729
幻	-10.1729
盾	-10.1729
ปล้น	-10.1729
▁ผมต้องการ	-10.1732
迹	-10.1741
挂	-10.1742
เจาะ	-10.1742
BAR	-10.1743
的确	-10.1744
▁งาน	-10.1748
但是	-10.1752
迟	-10.1754
根本不	-10.1763
▁r	-10.1766
优	-10.1769
即	-10.1769
▁ออกไป	-10.177
哥们	-10.1771
你可以	-10.178
ธนาคาร	-10.1782
▁ใช้	-10.1782
午	-10.1784
给我们	-10.1787
▁โอ้ว	-10.1795
รุนแรง	-10.1795
離開	-10.1796
▁伊	-10.1797
的話	-10.1802
突	-10.1807
▁คุณนาย	-10.1807
▁people	-10.1808
เหตุการณ์	-10.1808
▁你以为	-10.1814
ได้ยินเสียง	-10.1817
▁หวังว่า	-10.1817
▁别担心	-10.1817
บาดเจ็บ	-10.1821
ที่มัน	-10.1821
ได้ดี	-10.1825
礼物	-10.1827
นี้เป็น	-10.1828
伙计	-10.1828
วันเกิด	-10.1833
撒	-10.1834
独	-10.1843
許	-10.1846
報	-10.1847
ปลอม	-10.1847
似乎	-10.1847
号码	-10.185
▁เข้ามา	-10.185
▁不能	-10.1852
下面	-10.1853
สักหน่อย	-10.1853
▁我们走	-10.1855
▁ไหน	-10.1855
攻击	-10.1861
记录	-10.1861
告诉他	-10.1863
▁你到底	-10.1866
合作	-10.187
得很	-10.1871
起來	-10.1873
เชื้อ	-10.1874
我可以	-10.188
看上去	-10.1883
รู้ไหม	-10.1885
兩	-10.1885
▁โอ้พระเจ้า	-10.1888
เห็นว่า	-10.1891
คัน	-10.1894
มี่	-10.1895
旧	-10.19
砸	-10.19
มาทําอะไรที่นี่	-10.19
的儿子	-10.1901
停止	-10.1902
รู้ว่าคุณ	-10.191
▁沒	-10.191
率	-10.1913
mon	-10.1915
可能会	-10.1918
▁อย่ามา	-10.192
นัง	-10.192
▁還有	-10.1924
结束了	-10.1925
電	-10.1926
妹妹	-10.1927
ที่พวกเขา	-10.1929
▁ให้ตายสิ	-10.1931
▁明天	-10.1938
บัญชี	-10.194
ทนาย	-10.1944
路上	-10.1944
案子	-10.1947
ข้างใน	-10.1948
น่ะสิ	-10.1953
เลอร์	-10.196
สน	-10.196
▁你知道我	-10.196
คุ	-10.196
带来	-10.1961
ant	-10.1964
พอแล้ว	-10.1964
珍	-10.1966
เอ้ย	-10.197
▁ที่จริง	-10.197
▁我和	-10.1971
▁ฉันเคย	-10.1971
搭	-10.198
	-10.198
了他	-10.1982
▁เอาเลย	-10.1983
หอ	-10.1985
พยายามที่จะ	-10.1986
ไม่คิดว่า	-10.1989
ฉันต้อง	-10.199
อะไรน่ะ	-10.1992
来吧	-10.1993
威胁	-10.1993
抓到	-10.1994
▁ไม่ต้องห่วง	-10.1995
也有	-10.2001
กล่าว	-10.2002
跟着	-10.2004
FBI	-10.2007
เชีย	-10.2007
ฟ้า	-10.201
ให้ดี	-10.2014
开车	-10.2014
▁我就是	-10.2015
ห่าง	-10.2016
箭	-10.202
训练	-10.202
的大	-10.2021
lu	-10.2028
▁Okay	-10.2031
免	-10.2032
เชล	-10.2034
คิม	-10.2034
紧张	-10.2035
ดับ	-10.2039
值得	-10.2042
想象	-10.2043
▁我们就	-10.2044
ip	-10.2045
ยอง	-10.2048
▁ฉันเข้าใจ	-10.2049
一定是	-10.205
朗	-10.206
猪	-10.206
มันไว้	-10.2061
วิเศษ	-10.2061
ไปเอา	-10.2062
เชียว	-10.2068
这么多	-10.2068
總	-10.2073
red	-10.2074
แร	-10.2074
比较	-10.2074
เธฐเธ	-10.2077
เซล	-10.2078
▁ก็แค่	-10.2082
60	-10.2084
有关	-10.2086
達	-10.2087
ame	-10.2089
亲爱的	-10.2093
很棒	-10.2094
疯	-10.2101
章	-10.2101
รับผิดชอบ	-10.2101
好嗎	-10.2111
▁แต่ตอนนี้	-10.2114
灭	-10.2114
▁ถ้าเขา	-10.2115
▁รีบ	-10.2118
熊	-10.2128
สมัย	-10.2129
▁คืนนี้	-10.213
""?"	-10.2132
ทั่ว	-10.2134
项	-10.2135
ock	-10.2141
遗	-10.2141
兽	-10.2141
媽媽	-10.2142
另一个	-10.2143
บรร	-10.2144
ลาร์	-10.2144
เธฐ	-10.2146
一定会	-10.2147
นิส	-10.2154
บ๊อบ	-10.2154
แขก	-10.2155
简直	-10.2155
นี่คือ	-10.216
典	-10.2168
บ่อย	-10.2168
็ท	-10.2171
▁继续	-10.2173
รายการ	-10.2175
的那个	-10.2176
ty	-10.2176
ออกไปจากที่นี่	-10.2176
馆	-10.2182
欠	-10.2182
▁是不是	-10.2182
เยี่ยมมาก	-10.2183
▁有什么	-10.2188
รู้มั้ย	-10.2188
หมายเลข	-10.219
ฟี	-10.2193
受伤	-10.2193
ฮาร์	-10.2195
意义	-10.2198
▁ถ้างั้น	-10.2198
▁และถ้า	-10.2199
食物	-10.2199
ๆๆ	-10.22
ฮัน	-10.2204
迫	-10.2209
▁never	-10.2211
▁แฮ	-10.2211
▁ยิง	-10.2219
真好	-10.2222
พอใจ	-10.2229
เลข	-10.2231
เทร	-10.2233
ใช่มั๊ย	-10.2233
ace	-10.2237
มัด	-10.2238
▁เจน	-10.2238
停下	-10.224
▁has	-10.2247
交给	-10.225
▁หนึ่ง	-10.225
桑	-10.225
讯	-10.225
ภูมิใจ	-10.2253
▁我真的	-10.2253
อะไรบางอย่าง	-10.2254
见面	-10.2255
มาดู	-10.2256
讓你	-10.2258
请你	-10.2258
pr	-10.2261
▁你没	-10.2261
▁而我	-10.2261
เธซเธ	-10.2262
ฝาก	-10.2263
ร้องไห้	-10.2264
忠	-10.2264
道歉	-10.2264
一點	-10.2265
ซะอีก	-10.2265
สุดๆ	-10.2268
在那儿	-10.2271
找不到	-10.2272
▁เราไม่ได้	-10.2273
▁เงียบ	-10.2273
不知	-10.2278
เหนื่อย	-10.2278
硂	-10.2278
	-10.2278
ธรรมชาติ	-10.2278
成了	-10.2278
คิดว่าฉัน	-10.2286
เมื่อวาน	-10.2287
ตัดสิน	-10.2287
รุ่น	-10.2293
睡觉	-10.2293
CF	-10.2294
▁ไม่หรอก	-10.2294
麼	-10.2306
แก้ไข	-10.2306
ไม่มีวัน	-10.2307
unt	-10.231
發生	-10.2311
แค่นี้	-10.2311
ชั่น	-10.2313
厉害	-10.2319
许	-10.2323
▁เธอไม่	-10.2325
วิส	-10.2329
▁就在	-10.233
和她	-10.233
พี่น้อง	-10.2331
ระวัง	-10.2334
▁เพื่อให้	-10.2336
打扰	-10.2337
早就	-10.2338
ถูกจับ	-10.2339
将会	-10.234
▁而你	-10.2344
確	-10.2345
▁大家都	-10.2345
必須	-10.2347
ขนาดนี้	-10.2347
ดอ	-10.2349
▁ได้เลย	-10.2351
以為	-10.2351
看到你	-10.2351
ดูด	-10.2353
ไม่รู้จัก	-10.2354
告訴我	-10.2354
易	-10.2358
洋	-10.236
อร่อย	-10.2361
ไมค์	-10.2362
▁这是什么	-10.2368
อะไรบ้าง	-10.2369
ไปหน่อย	-10.237
ช่วยคุณ	-10.237
▁แล้วนาย	-10.237
日子	-10.2371
เวลาที่	-10.2373
武	-10.2373
▁และเขา	-10.2374
烦	-10.2374
	-10.2374
ฟอ	-10.2374
รอง	-10.2375
AA	-10.2378
▁那就是	-10.2381
ฆ่าเขา	-10.2383
候	-10.2384
หน้าต่าง	-10.2386
顾	-10.2387
苦	-10.2387
怀	-10.2387
甲	-10.2388
▁should	-10.2388
John	-10.2388
ขอบ	-10.2392
คิดว่าคุณ	-10.2392
▁They	-10.2399
เอามา	-10.2401
▁นี่ไม่ใช่	-10.2405
row	-10.2408
ตัวตน	-10.2408
ไปกับ	-10.2409
▁我们需要	-10.241
拿着	-10.241
เราได้	-10.2414
▁แล้วทําไม	-10.242
能够	-10.2424
让人	-10.2425
ใช้ชีวิต	-10.2426
▁รับ	-10.2426
钥匙	-10.243
ราชินี	-10.243
แปลว่า	-10.2431
จะกลับมา	-10.2436
▁ช่วยด้วย	-10.2438
自然	-10.2439
再见	-10.244
控	-10.2441
▁不会	-10.2442
▁ฉันรู้สึก	-10.2443
ทั้งคู่	-10.2444
刑	-10.2444
劲	-10.2444
祖	-10.2444
差不多	-10.2444
สนิท	-10.2444
วัด	-10.2448
ได้อย่างไร	-10.2455
▁ผู้หญิง	-10.2457
▁really	-10.2459
我们要	-10.2465
อีกที	-10.247
等等	-10.247
▁ห้อง	-10.2472
ยุติธรรม	-10.2472
夺	-10.2472
坚持	-10.2472
▁ชั่วโมง	-10.2473
嘿	-10.2477
ความสัมพันธ์	-10.248
一家	-10.2481
คุณกําลัง	-10.2481
bb	-10.2485
疼	-10.2486
隔	-10.2486
เล็กน้อย	-10.2492
息	-10.2497
部分	-10.2497
เธฒเน	-10.2497
หลังจากนั้น	-10.2497
อยู่ข้าง	-10.2497
永	-10.2498
ผิดพลาด	-10.2499
▁sc	-10.2499
our	-10.2505
ลูกค้า	-10.2509
ฆ	-10.2513
▁先	-10.2514
ber	-10.2514
ت	-10.2514
ประธานาธิบดี	-10.2514
相信我	-10.2517
ว่าใคร	-10.2518
我不知道	-10.2521
▁ทาง	-10.2522
的原因	-10.2524
พันธุ์	-10.2528
เคยเห็น	-10.2531
ไม่ออก	-10.2532
สาวๆ	-10.2534
▁เราต้องการ	-10.2535
黑体	-10.2536
▁18	-10.2539
เช่นนั้น	-10.2539
art	-10.2542
ซ่อม	-10.2542
หน่ะ	-10.2548
\4	-10.2551
ข้างหน้า	-10.2554
播	-10.2556
就好	-10.2557
เบร	-10.2558
ทอม	-10.2559
เหล่านั้น	-10.2564
令人	-10.2565
ึง	-10.2566
要做	-10.2566
體	-10.2571
HBE	-10.2571
提供	-10.2572
ting	-10.2579
也没有	-10.2583
依	-10.2584
约翰	-10.2584
萬	-10.2585
诚	-10.2585
ก็คง	-10.2585
ไม่เป็น	-10.2586
คิดว่ามัน	-10.2586
ซ้ํา	-10.2596
用的	-10.2597
808080}	-10.26
的一切	-10.2602
一名	-10.2607
▁闭嘴	-10.2607
之一	-10.2608
你好	-10.2609
▁ถูกต้อง	-10.2609
ในเมือง	-10.2611
界	-10.2612
▁然後	-10.2613
ใครสักคน	-10.2617
ค้าง	-10.2621
▁เขาไม่ได้	-10.2623
การ์	-10.2623
▁พวกเธอ	-10.2624
พนัน	-10.2627
หยิบ	-10.2627
你父亲	-10.263
ช่วยเหลือ	-10.263
给了	-10.2631
▁我认为	-10.2631
这一	-10.2632
▁Don	-10.2637
坦	-10.2639
ละคร	-10.2639
堡	-10.264
获	-10.2644
值	-10.2646
一年	-10.2651
去哪里	-10.2653
咬	-10.2656
地狱	-10.266
甜	-10.2666
▁Mo	-10.2668
มาด้วย	-10.2668
洲	-10.267
約	-10.267
ข้างล่าง	-10.267
สถาน	-10.2673
没法	-10.2676
ว่าอะไร	-10.2678
จบแล้ว	-10.2681
到处	-10.2685
สังเกต	-10.2685
รับใช้	-10.2685
麦克	-10.2685
เบา	-10.2685
特工	-10.2688
เดล	-10.2689
还记得	-10.269
▁ในการ	-10.269
ตัวเขา	-10.2691
是对的	-10.2691
▁比如	-10.2692
ดอก	-10.2693
ติดตาม	-10.2693
อะไรนะ	-10.2694
คร	-10.2706
กซ์	-10.2706
▁โปรด	-10.2707
长官	-10.2709
▁ทําไมล่ะ	-10.271
关心	-10.2711
支持	-10.2714
อรี่	-10.2714
它的	-10.2715
捕	-10.2717
▁你确定	-10.2717
ที่เกิดขึ้น	-10.2717
แต	-10.2719
▁และเรา	-10.2723
▁สาม	-10.2724
สําหรับคุณ	-10.2724
有趣	-10.2728
▁เพ	-10.273
还不	-10.2734
▁อย่างที่	-10.2735
ub	-10.2736
孤	-10.2742
師	-10.2742
真的很	-10.2742
战斗	-10.2744
▁ซา	-10.2746
เจ้านาย	-10.2749
จอด	-10.2755
途	-10.2756
準備	-10.2756
ให้ข้า	-10.2757
▁ที่ฉัน	-10.2766
▁我爱你	-10.277
▁ฉันไม่รู้ว่า	-10.2773
ลิง	-10.2776
ไหล	-10.2777
犯罪	-10.2779
รบกวน	-10.2786
▁约翰	-10.2786
fi	-10.279
▁All	-10.2791
▁เราได้	-10.2795
▁ระหว่าง	-10.2796
▁ถ้าผม	-10.2799
เคลื่อน	-10.2799
แพทย์	-10.28
建议	-10.28
▁晚安	-10.28
สํา	-10.2801
不够	-10.2805
▁kill	-10.281
ally	-10.2815
low	-10.2817
หมู	-10.2819
▁Go	-10.2819
住了	-10.2823
医	-10.2824
▁沒有	-10.2828
机器	-10.2829
หลุด	-10.2829
爆炸	-10.2831
อาจจะเป็น	-10.2836
นุ	-10.284
救我	-10.2843
ได้เห็น	-10.2845
移	-10.2846
12\	-10.2853
ดูสิ	-10.2854
▁หัวหน้า	-10.2856
น้ํามัน	-10.2856
▁我可不	-10.2856
ต่างๆ	-10.2858
您的	-10.2859
明白了	-10.286
มาเป็น	-10.2861
▁ทําไมไม่	-10.2862
听见	-10.2863
李	-10.2864
▁แล้วเธอ	-10.2864
▁50	-10.2864
监	-10.2865
อยู่นะ	-10.2866
旅	-10.2868
過來	-10.287
严	-10.287
ทรมาน	-10.2872
0\4	-10.2873
ด้วยความ	-10.2874
放松	-10.2878
แด	-10.2881
請	-10.2881
也不会	-10.2883
生气	-10.2884
ไก่	-10.2885
▁在我	-10.2885
110}	-10.2887
聚	-10.2888
ไม่เหมือน	-10.2888
▁好啊	-10.2895
เห็นด้วย	-10.2896
每次	-10.2896
เลยเหรอ	-10.2897
ฆ่าคน	-10.2898
เดาว่า	-10.2898
ue	-10.2899
อาจเป็น	-10.2901
康	-10.2901
闹	-10.2902
利用	-10.2902
มั่นใจ	-10.2903
▁ตํารวจ	-10.2903
属于	-10.2903
老大	-10.2904
ถูกฆ่า	-10.2908
着我	-10.2912
茶	-10.2916
up	-10.2916
เธฑเน	-10.2917
▁让我们	-10.2922
พร้อมกับ	-10.2923
怪物	-10.2924
▁เธอก็	-10.2926
▁บาย	-10.2926
很有	-10.2928
熟	-10.2931
聊	-10.2934
美元	-10.2934
错误	-10.2935
นม	-10.2939
一份	-10.2941
สต	-10.2943
กระทั่ง	-10.2945
▁คุณได้	-10.2947
新闻	-10.2953
รู้สึกว่า	-10.2956
活着	-10.2956
▁我以为	-10.2962
ลอร์ด	-10.2974
พยาบาล	-10.2975
卷	-10.2975
เอเลน่า	-10.2975
现场	-10.2978
你也	-10.2978
งานนี้	-10.2979
ไปที่นั่น	-10.2979
เหมาะ	-10.2981
攻	-10.2989
敏	-10.299
」	-10.299
青	-10.299
กําหนด	-10.299
อยู่ตรงนี้	-10.299
ชาร์	-10.299
วอล	-10.2999
สองสาม	-10.3
ฯ	-10.3004
▁否则	-10.3005
▁0	-10.3011
น่ะเหรอ	-10.3011
一件事	-10.3012
อย่างอื่น	-10.3013
去哪儿	-10.3016
得好	-10.3019
โปร	-10.3021
我父亲	-10.3023
这家伙	-10.3023
แต่งตัว	-10.3027
ก็ไม่รู้	-10.3028
船长	-10.303
สิ่งที่เรา	-10.3031
摸	-10.3034
缺	-10.3034
body	-10.3035
喔	-10.3037
▁天	-10.3038
bi	-10.3038
很快	-10.3041
展	-10.3042
ity	-10.3043
▁你没事吧	-10.3046
ขั้น	-10.3047
财	-10.3049
就这么	-10.3052
เชื่อใจ	-10.3056
病人	-10.3057
บริ	-10.3058
ซะที	-10.306
见到你	-10.3061
方法	-10.3073
▁ขอบคุณที่	-10.3074
เหรอคะ	-10.3074
ละกัน	-10.3075
มังกร	-10.3079
Elena	-10.3079
怎么说	-10.308
看过	-10.3085
面前	-10.3086
ัท	-10.3087
松	-10.3088
▁但我们	-10.3091
则	-10.3093
เส้นทาง	-10.3093
赞	-10.3094
原谅	-10.3094
ลุย	-10.3097
▁这是我	-10.3099
ให้พวกเขา	-10.3101
บอล	-10.3101
ซ้อม	-10.3109
เจ็ด	-10.3109
ดูดี	-10.311
等你	-10.3113
▁เขามี	-10.3114
เอส	-10.3116
เปลี่ยนไป	-10.3119
告訴	-10.312
rd	-10.3121
為什麼	-10.3123
佩	-10.3123
มือถือ	-10.3127
หวาน	-10.3128
ook	-10.3129
▁ดูเหมือนว่า	-10.313
▁全	-10.3132
ราว	-10.3133
给她	-10.3136
๊ด	-10.3138
สมาชิก	-10.3138
例	-10.3138
帅	-10.3138
we	-10.3139
▁我明白	-10.3143
通知	-10.3145
ฝ	-10.3146
▁你必须	-10.3146
误	-10.315
▁希望	-10.315
บุก	-10.315
ได้ผล	-10.3151
ฝีมือ	-10.3153
寄	-10.3153
胸	-10.3153
กับนาย	-10.3159
ไม่ใช่คน	-10.3168
กี่	-10.3169
▁เเต่	-10.3173
▁好像	-10.3177
ความฝัน	-10.3178
跟她	-10.3179
▁คุณต้องการ	-10.3179
也不是	-10.3181
อยู่ตรงนั้น	-10.3182
ข้างหลัง	-10.3182
Τ	-10.3183
颗	-10.3183
หน่อยนะ	-10.3186
sa	-10.3187
环	-10.3198
离开这里	-10.3201
au	-10.3203
ดีแล้ว	-10.3206
้ด	-10.3209
ving	-10.321
妇	-10.3214
答案	-10.3215
ach	-10.3215
มาเลย	-10.3217
ยุค	-10.3218
殺了	-10.3224
▁เดี๋ยวนี้	-10.3224
ไม๊	-10.3225
▁ฝ่าบาท	-10.3229
居然	-10.323
忘记	-10.323
วาย	-10.3236
▁100	-10.3237
เซีย	-10.3238
在干什么	-10.324
ชวน	-10.324
ต้อนรับ	-10.3244
ทรยศ	-10.3244
销	-10.3244
▁ครั้ง	-10.3245
พวกแก	-10.3248
les	-10.3253
▁where	-10.3253
เธก	-10.3254
创	-10.3256
幸运	-10.326
开门	-10.3263
▁真的吗	-10.3265
某	-10.3267
ห้องน้ํา	-10.3269
女朋友	-10.3272
จะเริ่ม	-10.3274
饼	-10.3274
ของลูก	-10.3276
side	-10.328
正是	-10.328
ไม่สน	-10.3285
方向	-10.3286
▁q	-10.3287
▁find	-10.3289
องค์	-10.329
ark	-10.3292
▁ฉันเสียใจ	-10.3297
经历	-10.3297
▁เสียง	-10.3299
ไปตาม	-10.3302
เฉพาะ	-10.3304
什么都	-10.3306
▁into	-10.3311
มีลูก	-10.3315
的故事	-10.3315
เป็นไปไม่ได้	-10.3316
意外	-10.3316
เธง	-10.3317
险	-10.3318
เอ็ม	-10.332
▁即使	-10.332
电脑	-10.3322
บางที	-10.3326
แล้วนี่	-10.3327
乔	-10.3328
今	-10.3329
▁如果我们	-10.3329
科学	-10.333
▁ฉันยัง	-10.333
▁คุณทํา	-10.3331
▁แจ็ค	-10.3332
好多	-10.3333
離	-10.3334
插	-10.3335
แถวนี้	-10.3342
ธี	-10.3343
验	-10.3345
ทางเลือก	-10.3348
烈	-10.335
ศึก	-10.3352
งาม	-10.3358
คนอื่นๆ	-10.3359
ไม่ไหว	-10.3359
题	-10.3364
▁那是什么	-10.3365
屁股	-10.3366
ที่ทําให้	-10.3367
ติน	-10.3373
凶手	-10.3373
ฮู	-10.3379
有可能	-10.3384
ทําให้ผม	-10.3392
กลับไปที่	-10.3392
▁祝你	-10.3393
供	-10.3394
ประสาท	-10.3396
▁ผมรู้ว่า	-10.3397
动物	-10.3398
ครั้งนี้	-10.3398
失踪	-10.34
ประวัติ	-10.3412
芬	-10.3412
ทิศ	-10.3416
▁ผมหมายถึง	-10.3422
أ	-10.3427
君	-10.3427
แหวน	-10.3429
จ่า	-10.3429
เฉยๆ	-10.3432
จําเป็น	-10.3437
เมืองนี้	-10.3439
向你	-10.3441
不去	-10.3441
อเมริกัน	-10.3443
tra	-10.3443
▁我相信	-10.3445
一遍	-10.3449
▁為什麼	-10.3451
ครับท่าน	-10.3454
上次	-10.3455
▁一切都	-10.3456
奈	-10.3458
恐怖	-10.3458
▁Bo	-10.3459
ฝน	-10.3461
ไม่สนใจ	-10.3463
หลายปี	-10.347
	-10.3474
的钱	-10.3475
ลิส	-10.3476
14\	-10.3483
需	-10.3483
他会	-10.3484
เธฃเน	-10.3485
唯一的	-10.3485
一般	-10.3485
▁และตอนนี้	-10.3488
看你	-10.3489
杜	-10.3489
08\	-10.3489
og	-10.3491
▁คุณก็รู้	-10.3495
รู้ว่ามัน	-10.3497
ลุ	-10.3498
จังเลย	-10.35
ห่วย	-10.3505
ไปจาก	-10.3505
▁老天	-10.3507
ชัด	-10.3509
▁pro	-10.3511
ก้อน	-10.3511
亡	-10.3515
But	-10.3515
子弹	-10.3515
怎么回事	-10.3519
细	-10.3519
恭	-10.352
一起去	-10.3522
รู้ไหมว่า	-10.3523
ข้อตกลง	-10.3523
这样做	-10.3524
ชื่ออะไร	-10.3525
▁อาจ	-10.3525
เป็นเพราะ	-10.3526
้ย	-10.3528
เปล	-10.3529
阵	-10.3536
▁—	-10.355
陆	-10.3551
หาก	-10.3553
▁ที่คุณ	-10.3556
ช์	-10.3558
มากเกินไป	-10.3563
▁我必须	-10.3564
戒	-10.3565
aw	-10.3566
埋	-10.3567
隊	-10.3567
追踪	-10.3567
ไปหมด	-10.3582
摆	-10.3582
童	-10.3583
留在	-10.3586
แมว	-10.3589
การ์ด	-10.3592
做到	-10.3598
▁other	-10.3598
現	-10.36
หนา	-10.3601
▁แล้วถ้า	-10.3602
▁你真的	-10.3605
16\	-10.3608
แม็ก	-10.3612
內	-10.3614
柏	-10.3614
荒	-10.3614
แหล่ะ	-10.3615
怀疑	-10.3615
เปน	-10.3621
出来的	-10.3622
据	-10.3627
่ว	-10.3628
ไงล่ะ	-10.3628
▁มันเป็นเรื่อง	-10.3629
编	-10.363
มีค่า	-10.3632
丹尼	-10.3633
▁有些	-10.3633
ั่น	-10.364
ฉาก	-10.3643
酒吧	-10.3645
爽	-10.3645
敌人	-10.3646
那时	-10.3648
ผิดหวัง	-10.3648
มุ่ง	-10.3648
วอน	-10.365
▁ฮา	-10.3651
▁相信我	-10.3654
เรื่องการ	-10.3661
ich	-10.3661
袭击	-10.3662
ว่าเป็น	-10.3662
จํานวน	-10.3668
▁ทางนี้	-10.3668
กันแน่	-10.367
挖	-10.3677
婊子	-10.3677
线索	-10.3681
在這	-10.3681
▁是吧	-10.3682
▁ยู	-10.3686
▁那我们	-10.3695
ทําให้เขา	-10.3697
▁比	-10.3708
柯	-10.3709
กระดูก	-10.3709
▁ลี	-10.3712
ฉลอง	-10.3713
誓	-10.3721
拳	-10.3724
iss	-10.3724
單	-10.3725
扫	-10.3725
▁我只是想	-10.3727
▁น่าจะ	-10.3728
老板	-10.3732
ญา	-10.3737
去看	-10.3737
มันมา	-10.3738
ê	-10.374
瓶	-10.374
有一天	-10.3741
▁你不会	-10.3741
▁hell	-10.3743
▁แบบ	-10.3746
▁ลาก่อน	-10.3749
หมวก	-10.3756
咒	-10.3756
เดวิด	-10.3756
ในโลก	-10.3759
像你	-10.3759
▁操	-10.376
▁ใครจะ	-10.3765
▁我们有	-10.3766
時候	-10.3767
ประเด็น	-10.3772
赫	-10.3772
好运	-10.3776
พ้น	-10.3777
ound	-10.3779
至少	-10.3784
จนกว่า	-10.3786
▁ได้สิ	-10.3787
杀了他	-10.3789
▁doing	-10.379
有事	-10.3792
ยิ่งใหญ่	-10.3793
day	-10.3794
ทีเดียว	-10.3795
▁你知道吗	-10.3798
是这样	-10.3799
▁life	-10.3804
ย้อน	-10.3805
ปะ	-10.3805
▁200	-10.3806
ตกใจ	-10.3806
▁คิด	-10.3807
ในขณะที่	-10.3807
wa	-10.3808
不明白	-10.3815
▁เดือน	-10.3816
ต้องหา	-10.3816
ชนิด	-10.3819
居	-10.3819
表现	-10.3823
變	-10.3824
魔法	-10.3825
安静	-10.3827
สิ่งที่เกิดขึ้น	-10.3829
▁无论	-10.3837
▁กัปตัน	-10.3839
尸	-10.3841
现在就	-10.3846
其实	-10.3854
▁反正	-10.3854
เธฃเธ	-10.3855
▁มันต้อง	-10.3856
百万	-10.3857
▁hear	-10.3858
wo	-10.386
不准	-10.3864
▁Ho	-10.3865
ก่อนนะ	-10.3865
统	-10.3866
纸	-10.3867
เคารพ	-10.3869
材	-10.3869
แล้วไง	-10.3872
ที่แล้ว	-10.3872
เอ่อ	-10.3873
都要	-10.3875
志	-10.3882
สัมผัส	-10.3885
叔叔	-10.3885
接近	-10.3889
แบ่ง	-10.3891
กันเลย	-10.3896
ted	-10.3899
▁我们必须	-10.39
▁again	-10.3901
尿	-10.3901
灰	-10.3901
กด	-10.3903
เรื่องราว	-10.3904
แปลกๆ	-10.3911
▁หรือว่า	-10.3916
Sheldon	-10.3917
滑	-10.3917
▁听我说	-10.3917
逮捕	-10.3917
▁这次	-10.3921
..."	-10.3923
ตามล่า	-10.3925
บุ	-10.3925
電話	-10.3928
อีกคน	-10.3929
ทํางานให้	-10.3931
▁Le	-10.3931
▁	-10.3933
症	-10.3933
牲	-10.3933
ran	-10.3936
黑暗	-10.3936
马上就	-10.3937
文件	-10.3938
▁บางครั้ง	-10.3942
ของพวกเรา	-10.3942
ในนี้	-10.3948
带走	-10.3953
▁There	-10.3957
准备好了	-10.3961
ลัก	-10.3962
第一个	-10.3962
出来了	-10.3964
围	-10.3964
لا	-10.3967
ในช่วง	-10.3967
严重	-10.3968
อยากให้คุณ	-10.3971
都不知道	-10.3972
在找	-10.3973
是吗	-10.3975
学生	-10.3978
gg	-10.398
韦	-10.3982
虫	-10.3982
什麽	-10.3982
是什麼	-10.3982
ฟังฉัน	-10.3984
มาเพื่อ	-10.399
That	-10.399
确认	-10.399
幹	-10.3995
仅	-10.3998
▁help	-10.3998
▁วิ่ง	-10.3999
ปั	-10.4
安娜	-10.4009
尾	-10.4015
▁ro	-10.4017
๊อก	-10.4018
เฟร	-10.4018
คี	-10.4025
▁拿	-10.4027
一段	-10.403
擊	-10.4031
访	-10.4031
เตียง	-10.4031
点儿	-10.4032
警告	-10.4033
▁am	-10.4034
ทอ	-10.4034
▁我想你	-10.404
ของพวก	-10.4041
还没有	-10.4042
太空	-10.4043
ไม่ถึง	-10.4045
相信你	-10.4047
วิทยุ	-10.4047
มาได้	-10.4048
▁已经	-10.4051
นั้นแหละ	-10.4058
▁你还好吗	-10.4061
เธฅเธ	-10.4063
ทุกอย่างที่	-10.4063
窗	-10.4064
羅	-10.4064
另外	-10.4065
บางสิ่ง	-10.4066
是誰	-10.4069
ผ่านไป	-10.4072
凶	-10.4073
เกี่ยวกับการ	-10.4074
พยาน	-10.4075
划	-10.4076
สนับสนุน	-10.408
潜	-10.408
ต้นไม้	-10.4082
ที่สําคัญ	-10.4085
แน่น	-10.4092
還有	-10.4092
並	-10.4097
宁	-10.4097
裤	-10.4097
▁said	-10.4097
ิง	-10.4098
อยู่ด้วยกัน	-10.41
是吧	-10.41
ผิดปกติ	-10.4101
不如	-10.4105
ต้องมา	-10.4106
๊ค	-10.4112
采	-10.4113
500	-10.4114
说他	-10.4114
กําลังทําอะไร	-10.4114
▁我想我	-10.4115
每天	-10.4117
真实	-10.4118
▁why	-10.4121
坐在	-10.4122
受到	-10.4125
干掉	-10.4125
โดยไม่	-10.4127
泡	-10.413
買	-10.413
ยักษ์	-10.413
ไร้สาระ	-10.413
承认	-10.413
▁没问题	-10.4131
พบคุณ	-10.4133
ทีวี	-10.4134
เหล่า	-10.4134
เชิง	-10.4136
▁ชาย	-10.4143
นานแค่ไหน	-10.4144
▁我要你	-10.4144
แฮม	-10.4145
จริงๆนะ	-10.4145
垃圾	-10.4146
绿	-10.4146
赶紧	-10.4148
议	-10.4149
▁มันไม่ได้	-10.415
威尔	-10.4152
ขุด	-10.4162
恋	-10.4163
端	-10.4163
เจมส์	-10.4163
警探	-10.4165
记住	-10.4166
杀手	-10.4166
▁ฉันอยากจะ	-10.4175
第三	-10.4175
征	-10.418
爬	-10.418
อเล็กซ์	-10.418
ในฐานะ	-10.418
▁give	-10.4183
หล่อ	-10.4185
声音	-10.4188
มิส	-10.4188
▁ปิด	-10.4188
艾米	-10.4189
มาช่วย	-10.4193
มีชีวิตอยู่	-10.4194
村	-10.4196
ทดลอง	-10.4196
幹嘛	-10.4197
把他们	-10.4198
ของคน	-10.4198
的新	-10.4199
來了	-10.42
เดินไป	-10.4203
▁欢迎	-10.4205
参	-10.4205
必要	-10.4206
มองเห็น	-10.4206
▁ไม่เห็น	-10.4209
▁มาสิ	-10.4211
▁不是吗	-10.4217
历	-10.4221
▁都是	-10.4223
#	-10.4224
เสร็จแล้ว	-10.4225
ปรา	-10.4225
耐	-10.423
เที่ยง	-10.423
เผื่อ	-10.423
	-10.423
อ้าง	-10.423
ท้าย	-10.4233
che	-10.4235
เทศ	-10.4239
面对	-10.4239
เมน	-10.424
▁then	-10.4241
ทําให้เธอ	-10.4246
显然	-10.4247
ปู่	-10.4252
▁别这样	-10.4254
มันเกิดขึ้น	-10.4257
很重要	-10.4266
เรากําลัง	-10.4267
หุ่น	-10.4267
ยกเลิก	-10.4268
▁เชื่อ	-10.4269
ที่สอง	-10.4272
ด้วยการ	-10.4274
คําว่า	-10.4274
นิก	-10.4275
把你的	-10.4275
▁นั่นไม่ใช่	-10.4276
อวกาศ	-10.428
เเค่	-10.428
รัสเซีย	-10.428
天使	-10.4281
这位	-10.4284
เหมือนเดิม	-10.4286
ที่ห้อง	-10.429
他了	-10.4291
待在	-10.4291
ไม่ใช่เรื่อง	-10.4292
不敢相信	-10.4295
不得不	-10.4295
掌	-10.4296
▁เขาบอกว่า	-10.4305
不是你	-10.4305
会被	-10.4305
เฟอร์	-10.4306
知道的	-10.431
tion	-10.431
▁บน	-10.4312
สายตา	-10.4313
▁爸	-10.4313
吐	-10.4313
谷	-10.4313
สวยงาม	-10.4315
是我们	-10.4315
邀请	-10.4317
生物	-10.4318
ong	-10.4318
อะไรล่ะ	-10.4321
监视	-10.4321
▁如果他	-10.4323
แปด	-10.4323
几天	-10.4327
ความสามารถ	-10.4329
股	-10.433
ฉุกเฉิน	-10.433
酒店	-10.4334
▁請	-10.4337
บ้างไหม	-10.4344
纪	-10.4346
ให	-10.4346
灵魂	-10.4348
站在	-10.435
เปลี่ยนแปลง	-10.4351
咱们	-10.4352
▁คุณอยาก	-10.4352
这些人	-10.4354
情报	-10.4355
▁给	-10.4357
▁Lo	-10.4358
▁even	-10.4364
▁你说什么	-10.437
กว่านั้น	-10.4371
คอม	-10.4371
แผนที่	-10.4375
▁ไมเคิล	-10.4377
เสียเวลา	-10.4377
很大	-10.4379
▁各位	-10.4379
充	-10.438
阴	-10.4381
浪费	-10.4382
▁你怎么知道	-10.4382
▁wh	-10.4387
นักเรียน	-10.4388
ทําการ	-10.4389
▁เขาก็	-10.4395
ปวด	-10.4397
ขวบ	-10.4398
สเตฟาน	-10.4399
กริ	-10.4399
การแสดง	-10.4403
พุ	-10.4412
นักโทษ	-10.4412
那个人	-10.4413
▁怎么回事	-10.4415
•	-10.4415
นาฬิกา	-10.4415
▁every	-10.4416
▁救命	-10.4416
โคตร	-10.4418
帝	-10.4419
lf	-10.4422
ร่วมกัน	-10.4423
▁ไม่เอา	-10.4424
ลงมือ	-10.4424
公主	-10.4427
撤	-10.4431
▁咱们	-10.4431
ผู้นํา	-10.4432
軍	-10.4432
公寓	-10.4432
失败	-10.4433
ขยะ	-10.4434
樣	-10.4435
ใช้มัน	-10.4435
跟我说	-10.4441
不一样	-10.4447
耳	-10.4449
แม่มด	-10.445
▁รถ	-10.4453
這兒	-10.4454
行为	-10.4455
担	-10.4462
ไม่ใช่เหรอ	-10.4463
坏了	-10.4463
ดูซิ	-10.4464
ฆ่าฉัน	-10.4464
唐	-10.4466
槍	-10.4466
▁นัก	-10.4469
แกะ	-10.4469
ทริ	-10.4471
▁ก็ดี	-10.4474
เคยมี	-10.448
ี่ยว	-10.4482
吃了	-10.4482
ไปสู่	-10.4483
ประวัติศาสตร์	-10.4484
就是这样	-10.4485
我儿子	-10.449
การต่อสู้	-10.4494
ขวาง	-10.4496
ชี้	-10.4496
▁没事的	-10.4497
ทุ่ม	-10.4498
得走了	-10.4498
lt	-10.4498
察	-10.4499
抵	-10.4501
失望	-10.4503
ทดสอบ	-10.4503
ครบ	-10.4504
找个	-10.4508
แต่ละ	-10.451
cHF	-10.4513
ซอง	-10.4513
尼克	-10.4513
หนี้	-10.4516
宫	-10.4518
ไม่น่า	-10.4518
ถอน	-10.4518
跟踪	-10.4519
ไม่มีเวลา	-10.452
สุข	-10.4523
ผู้หญิงที่	-10.4532
稱	-10.4535
ทําให้เรา	-10.4536
每个人都	-10.4536
เจ้าชาย	-10.4536
正确	-10.4538
玩笑	-10.4539
算是	-10.454
ฉา	-10.4541
เรื่อยๆ	-10.4541
感覺	-10.4541
▁很抱歉	-10.4543
เดอ	-10.4543
ราบ	-10.4543
谢谢你	-10.4551
สุภาพบุรุษ	-10.4552
意味着	-10.4552
仍然	-10.4553
แวะ	-10.4561
我爸	-10.4562
▁11	-10.4562
肯定是	-10.4568
ไปให้	-10.4569
條	-10.4569
羊	-10.4569
慢慢	-10.457
▁และฉันก็	-10.4575
สั้น	-10.4575
比我	-10.4582
บิล	-10.4586
浪	-10.4586
版	-10.4587
▁two	-10.4588
▁乔	-10.459
▁妈的	-10.4591
▁คุณสามารถ	-10.4602
รูปแบบ	-10.4603
็อค	-10.4604
ฟื้น	-10.4604
ภายใต้	-10.4604
尖	-10.4604
扮	-10.4604
育	-10.4604
ug	-10.4605
幸福	-10.4609
▁ครู	-10.4609
拉斯	-10.461
ลัด	-10.4613
▁我只想	-10.4613
的男人	-10.4614
▁only	-10.4618
พวกเจ้า	-10.4621
湖	-10.4621
▁Jane	-10.4623
มั่ง	-10.4624
ลี่ย์	-10.4626
ไบ	-10.4631
哪个	-10.4633
ยุ่งกับ	-10.4633
เป็นแบบนี้	-10.4634
我才	-10.4635
虎	-10.4639
ถัง	-10.4639
军队	-10.4642
เรอะ	-10.4647
ใต้ดิน	-10.465
你说的	-10.4651
再次	-10.4651
ในบ้าน	-10.4652
这个人	-10.4653
เกิดอะไรขึ้น	-10.4654
เร่ง	-10.4656
	-10.4656
表演	-10.4657
影响	-10.4657
แวน	-10.4658
เสียชีวิต	-10.4659
▁当我	-10.466
ว่าคุณจะ	-10.4662
มั่นใจว่า	-10.4663
ปฏิบัติ	-10.4664
ลัง	-10.4665
คิดจะ	-10.4666
▁ฉันไม่สามารถ	-10.4671
คลื่น	-10.4674
คลุม	-10.4674
宾	-10.4674
▁當然	-10.4674
เพื่อให้	-10.4676
▁car	-10.468
闭嘴	-10.4681
มีความหมาย	-10.4685
练	-10.4691
摇	-10.4691
ยาง	-10.4691
▁Yes	-10.4692
โชค	-10.4692
ครัว	-10.4694
พบกับ	-10.4696
รวย	-10.4696
▁เราจะไป	-10.4697
บรา	-10.4702
▁ถ้ามัน	-10.4702
การณ์	-10.4707
the	-10.4708
เวีย	-10.4709
ดนตรี	-10.4709
圣诞	-10.4709
▁โธ่	-10.4709
ถึงจะ	-10.4713
เล่ม	-10.4717
▁最	-10.4717
毁了	-10.4724
季	-10.4726
很抱歉	-10.473
就得	-10.4737
答	-10.4739
ทรา	-10.474
บอกเขา	-10.4742
仔	-10.4743
惨	-10.4744
貌	-10.4744
▁จริงๆแล้ว	-10.4744
▁Re	-10.4744
是什么意思	-10.4745
เคยได้ยิน	-10.475
只是个	-10.475
แข็ง	-10.4751
ven	-10.4754
ob	-10.4755
ช่วยอะไร	-10.4755
ตระกูล	-10.4761
เจ็บปวด	-10.4765
มาร์ค	-10.4767
脏	-10.4767
我的朋友	-10.4774
人员	-10.4774
▁sorry	-10.4779
余	-10.4779
妞	-10.4779
挡	-10.4779
ที่ข้า	-10.478
教授	-10.478
ว่ายังไง	-10.4782
ร้องเพลง	-10.4783
▁Dean	-10.4786
ins	-10.4787
接下来	-10.4787
จม	-10.479
ทั้งวัน	-10.4793
的家伙	-10.4794
▁Pa	-10.4798
知道他	-10.48
▁而是	-10.481
รักเธอ	-10.4811
ผู้ชายที่	-10.4814
是怎么回事	-10.4814
ไม่อยากให้	-10.4814
เบียร์	-10.4814
▁对吗	-10.4827
句	-10.4828
显	-10.4831
奶奶	-10.4833
พิธี	-10.4833
สิง	-10.4833
เพลิง	-10.4833
發現	-10.4839
ถา	-10.4844
เห็นคุณ	-10.4846
▁เราต้องไป	-10.485
略	-10.485
▁เขากําลัง	-10.4854
把这	-10.4854
的女儿	-10.4859
ปลาย	-10.4861
婆	-10.4864
โผล่	-10.4868
	-10.4868
▁much	-10.4868
我所	-10.4869
享受	-10.4871
反应	-10.4872
从未	-10.4881
ยอดเยี่ยม	-10.4882
为我	-10.4887
感受	-10.489
实在	-10.4895
ence	-10.4896
So	-10.4896
谋	-10.4899
仍	-10.4903
偶	-10.4903
X	-10.4903
载	-10.4903
แกล้ง	-10.4903
立刻	-10.4905
真正	-10.4907
▁แล้วไง	-10.4916
的女孩	-10.4918
รัส	-10.4918
ik	-10.4924
พิมพ์	-10.4926
客气	-10.4928
警长	-10.4929
ขยับ	-10.4935
王子	-10.4938
談	-10.4939
ภูเขา	-10.4939
扎	-10.4939
蜜	-10.4939
เหี้ย	-10.4942
欢迎	-10.4948
น้ําแข็ง	-10.4948
รู้สึกเหมือน	-10.4953
胆	-10.4957
赚	-10.4957
ฟ์	-10.4962
แส	-10.4966
方面	-10.4974
พอจะ	-10.4978
都能	-10.4979
ในวัน	-10.498
น้า	-10.498
▁หยุดนะ	-10.4981
▁Thank	-10.4985
喂	-10.4986
ตูด	-10.4988
อะไรก็ตาม	-10.4988
审	-10.4993
应该是	-10.4993
Leonard	-10.4993
违	-10.4993
毫	-10.4996
สําหรับฉัน	-10.4997
เห็นอะไร	-10.5004
รายชื่อ	-10.5006
拿走	-10.5008
ตายไปแล้ว	-10.5008
造成	-10.5012
提醒	-10.5015
เธซเน	-10.5016
จากไป	-10.5016
อยู่ในห้อง	-10.5027
同时	-10.5027
เธฒเธข	-10.5028
ฉันรู้	-10.5029
▁ยกเว้น	-10.5029
评	-10.5029
耍	-10.5029
实际	-10.5031
▁เดี๋ยวนะ	-10.5032
เป็นคนดี	-10.5033
act	-10.5044
ner	-10.5047
จิมมี่	-10.5047
姓	-10.5047
豪	-10.5047
▁สวัสดีครับ	-10.506
设计	-10.5062
พบกัน	-10.5062
ทางออก	-10.5063
废	-10.5063
尚	-10.5066
豆	-10.5066
▁既然	-10.5066
历史	-10.5067
辆	-10.5068
▁คุณเคย	-10.5071
ley	-10.5072
พายุ	-10.5075
足够	-10.5078
头发	-10.5079
rt	-10.5081
包括	-10.5084
ยัย	-10.5084
นิว	-10.5086
跳舞	-10.5087
普通	-10.5089
เกี่ยวข้อง	-10.509
กู้	-10.5099
诉	-10.5101
ครั้งที่	-10.5101
สอบ	-10.5102
英里	-10.5102
ฝูง	-10.5102
软	-10.5102
允许	-10.5102
มีเงิน	-10.5106
พร้อมแล้ว	-10.5106
ful	-10.5108
ทีหลัง	-10.5109
不出	-10.511
▁ไปกัน	-10.5113
คาร์ล	-10.5114
不像	-10.5114
อังกฤษ	-10.512
裝	-10.512
承	-10.5122
经常	-10.5125
จนถึง	-10.5127
主人	-10.5129
▁他要	-10.5131
คือสิ่งที่	-10.5131
下午	-10.5134
ทุน	-10.5135
เบื่อ	-10.5136
杀了我	-10.5136
ปีก่อน	-10.5136
尊	-10.5136
宣	-10.5137
計	-10.5138
ตะวันออก	-10.5138
的方式	-10.5139
▁ชาร์ลี	-10.5141
ลีน	-10.5142
布莱	-10.5144
กฏ	-10.5144
กลับมาแล้ว	-10.5146
中国	-10.5147
▁talk	-10.5152
สินค้า	-10.5157
▁ฉันต้องไป	-10.5157
เคล	-10.5158
ญาติ	-10.5158
จบลง	-10.5165
狱	-10.5169
應	-10.5174
หุ้น	-10.5175
亞	-10.5175
省	-10.5175
คอมพิวเตอร์	-10.5175
คนไข้	-10.5175
ไม่ทํา	-10.5188
昂	-10.5194
緊	-10.5194
เวิร์	-10.5194
▁เครื่อง	-10.5194
ดอกไม้	-10.5195
保险	-10.5195
▁Just	-10.5196
对他	-10.5199
出发	-10.5199
มัว	-10.52
术	-10.52
婚礼	-10.5202
在這裡	-10.5204
的声音	-10.5206
▁sure	-10.5211
記得	-10.5212
อุปกรณ์	-10.5212
戈	-10.5212
บุคคล	-10.5212
▁ยินดีที่ได้	-10.5212
คิว	-10.5224
ริน	-10.5226
มีเหตุผล	-10.5227
▁แต่นาย	-10.5229
找到他	-10.5229
损	-10.523
植	-10.523
แทง	-10.5231
เพราะว่า	-10.5238
คุ้มกัน	-10.5238
嗯	-10.5241
的世界	-10.5242
หมอนี่	-10.5244
有意思	-10.5246
你妈	-10.5248
Michael	-10.5249
สังคม	-10.5249
竟然	-10.525
警官	-10.5252
ด้วยเหรอ	-10.5253
ทั่วไป	-10.5254
▁我要去	-10.5257
方式	-10.526
不得	-10.5261
ตลอดไป	-10.5264
ด้วยตัวเอง	-10.5265
介绍	-10.5267
欺	-10.5267
手下	-10.5271
味道	-10.5274
鼓	-10.5286
▁多谢	-10.5287
▁day	-10.5291
แค่อยาก	-10.5293
จอง	-10.5295
ฑ	-10.5297
แซน	-10.53
做出	-10.5301
一张	-10.5303
▁years	-10.5305
กว้าง	-10.5305
▁ขอโทษที	-10.5306
全都	-10.5306
做了什么	-10.5307
做的事	-10.5307
ไม่ได้นะ	-10.5308
▁她在	-10.5308
ึก	-10.5311
就没	-10.5312
บริการ	-10.5317
折	-10.5323
พิจารณา	-10.5323
针	-10.5323
ผูก	-10.5323
珀	-10.5323
虚	-10.5323
able	-10.5323
เซนต์	-10.5324
拒绝	-10.5326
มานาน	-10.5326
▁ba	-10.5326
很快就	-10.5333
ในสิ่งที่	-10.5336
把我们	-10.5338
▁นี่คุณ	-10.5342
纹	-10.5342
趴	-10.5342
Where	-10.5342
ถึงได้	-10.5356
23	-10.5357
▁你需要	-10.5371
梦想	-10.5379
亿	-10.5379
零	-10.5379
▁อรุณสวัสดิ์	-10.5379
ทําอะไรอยู่	-10.5381
แจ็ค	-10.5384
寻找	-10.5386
叫你	-10.5386
我觉得	-10.5388
เข้ามาใน	-10.5388
แปลกใจ	-10.539
病毒	-10.5392
毫无	-10.5395
骑	-10.5397
障	-10.5398
เลื่อน	-10.5398
ความทรงจํา	-10.5398
讨论	-10.5398
干净	-10.5399
我家	-10.54
ก็เพราะ	-10.5408
เธทเน	-10.5412
什么东西	-10.5413
订	-10.5417
隆	-10.5417
白痴	-10.5417
▁ผมเข้าใจ	-10.5419
▁ฉันไม่คิดว่า	-10.5419
▁不过我	-10.5425
งั้นหรอ	-10.5427
ทางการ	-10.5427
▁dis	-10.5432
▁ใส่	-10.5433
欲	-10.5436
สุนัข	-10.5436
▁still	-10.5436
สรุป	-10.5436
▁你是说	-10.544
ไม่เจอ	-10.5442
听到了	-10.5443
โดด	-10.5444
สวยมาก	-10.5446
ลองดู	-10.5446
▁加油	-10.5447
▁คุณเห็น	-10.5448
จอร์จ	-10.5451
最后一	-10.5452
停车	-10.5452
มนต์	-10.5455
一会儿	-10.5455
認為	-10.5458
หายตัวไป	-10.546
许多	-10.5461
อัด	-10.5462
▁巴	-10.5465
ผู้ที่	-10.5466
心脏	-10.5467
不上	-10.547
还会	-10.5471
ทัพ	-10.5473
ทั้งหลาย	-10.5475
▁事实上	-10.5475
ather	-10.5484
▁หลังจากที่	-10.5488
กางเกง	-10.5492
乌	-10.5492
▁但是你	-10.5493
อยู่ใกล้	-10.5493
一直都	-10.5509
伍	-10.551
构	-10.5511
د	-10.5511
บังเอิญ	-10.5511
批	-10.5511
适合	-10.5513
ough	-10.5516
都知道	-10.5517
เดียวกับ	-10.5524
▁ทําไมถึง	-10.5526
ผลิต	-10.553
收拾	-10.553
在里面	-10.5534
子里	-10.5541
出生	-10.5541
พี่สาว	-10.5541
▁我刚	-10.5544
▁อย่าไป	-10.5545
ซิล	-10.5547
ه	-10.5549
▁ช่าย	-10.5549
หมาป่า	-10.5555
你们俩	-10.5557
▁พวกเราจะ	-10.5557
วี่	-10.5561
ชก	-10.5564
กล้าหาญ	-10.5568
ชีพ	-10.5569
测试	-10.557
法律	-10.5571
ps	-10.5572
▁เจอ	-10.5573
use	-10.5574
อันนี้	-10.5575
扰	-10.5582
▁我们不能	-10.5584
试着	-10.5584
ริก	-10.5585
ail	-10.5586
把枪	-10.5587
▁บ้าน	-10.5587
á	-10.5588
ประเภท	-10.5588
เครียด	-10.5588
丑	-10.5588
占	-10.5588
มีอยู่	-10.5592
▁ขอโทษครับ	-10.5594
喝酒	-10.56
▁บั	-10.5601
เช่นนี้	-10.5601
像个	-10.5603
ไค	-10.5604
听我说	-10.5609
อะไรสักอย่าง	-10.561
แย่มาก	-10.561
▁我想要	-10.5611
บรู	-10.5614
รู้ว่าฉัน	-10.5619
สักครู่	-10.5626
壞	-10.5626
擔心	-10.5627
杀了你	-10.5629
一件	-10.5633
一半	-10.5638
有點	-10.5641
▁thought	-10.5645
卢	-10.5645
จริงจัง	-10.5645
io	-10.5646
เท่าไร	-10.5649
各位	-10.5652
等待	-10.5656
并不是	-10.5659
▁孩子	-10.566
เนื่อง	-10.5664
สตาร์ค	-10.5665
ld	-10.5665
晚餐	-10.5667
ยังมีชีวิตอยู่	-10.5667
不介意	-10.5667
你所	-10.5669
在他	-10.5675
不少	-10.5676
for	-10.5681
ต่อหน้า	-10.5682
จะบอกว่า	-10.5682
燃	-10.5684
策	-10.5684
▁long	-10.5685
又不是	-10.5686
คลิ	-10.5687
เหลือเกิน	-10.5689
รอบๆ	-10.5693
ขึ้นอยู่กับ	-10.5695
▁二	-10.5698
▁ฉันหวังว่า	-10.5698
โอเคมั้ย	-10.5698
เธญเน	-10.5702
魂	-10.5702
ฮีโร่	-10.5703
สูบ	-10.5703
撒谎	-10.5703
▁plan	-10.5703
态	-10.5708
▁─	-10.571
▁won	-10.5715
律	-10.5719
纯	-10.5722
▁ถึงแม้	-10.5725
จะเกิดขึ้น	-10.5726
的情况	-10.5729
吃饭	-10.5729
随时	-10.5729
สัง	-10.5729
桌	-10.5732
▁ผมชอบ	-10.5733
ฟิน	-10.5736
属	-10.5739
ในอีก	-10.5741
摄	-10.5742
减	-10.5742
舒服	-10.5742
ก็ดี	-10.5744
gr	-10.5744
ข้อหา	-10.5746
ต้องตาย	-10.5747
▁ผมจะไป	-10.5748
คงเป็น	-10.5752
รีบไป	-10.5753
的父亲	-10.5755
上班	-10.5756
▁你认为	-10.5757
敌	-10.5761
ล้มเหลว	-10.5761
ในเวลา	-10.5762
อยู่ในนั้น	-10.5763
เว้ย	-10.5763
彼得	-10.5765
太阳	-10.5767
事儿	-10.5769
没事了	-10.577
检	-10.5779
▁ใช่ครับ	-10.5781
ไฟฟ้า	-10.5782
逃跑	-10.5783
สาเหตุ	-10.5784
ary	-10.5784
กับใคร	-10.5784
แสดงให้	-10.5785
▁God	-10.579
โลกนี้	-10.5791
▁อย่าให้	-10.5791
▁ใช่เลย	-10.5791
ไม่สําคัญ	-10.5794
ซาร่า	-10.5796
ว่าเกิดอะไรขึ้น	-10.5797
สตาร์	-10.58
我说的	-10.58
ㄓ	-10.58
ต่อต้าน	-10.58
เพศสัมพันธ์	-10.58
活动	-10.5803
เต็มไปด้วย	-10.5803
脑袋	-10.5804
千万	-10.5806
差点	-10.5807
ในนั้น	-10.5817
旁	-10.5819
โปรแกรม	-10.582
震	-10.582
ในขณะนี้	-10.582
汽车	-10.5824
วย	-10.5824
▁เงิน	-10.5829
70	-10.583
去做	-10.5831
ดอร์	-10.5831
▁str	-10.5834
กัปตัน	-10.5836
絕	-10.584
比你	-10.584
ฐ	-10.5851
做过	-10.5852
适	-10.5855
干了	-10.5855
汤	-10.5857
這是	-10.5858
▁เคย	-10.5858
韩	-10.5859
▁feel	-10.5859
พูดเรื่องอะไร	-10.5861
▁away	-10.5864
死去	-10.5869
▁their	-10.5874
▁我保证	-10.5875
只会	-10.5877
丧	-10.5879
擦	-10.5879
暖	-10.5879
運	-10.5879
尝	-10.5879
宇宙	-10.5879
โว้ย	-10.588
ยืม	-10.588
数据	-10.588
บ่าย	-10.5889
มากกว่านี้	-10.5889
▁แล้วเจอกัน	-10.589
นึกถึง	-10.5897
วาน	-10.59
เสือ	-10.5903
จอม	-10.5904
长大	-10.5907
หลวง	-10.5914
池	-10.5918
เอมี่	-10.592
สงสัยว่า	-10.5925
ชิน	-10.5927
▁ทําไมคุณ	-10.5927
จิตใจ	-10.5928
ระบุ	-10.5929
▁If	-10.5931
需要你	-10.5934
政	-10.5938
強	-10.5938
还真	-10.5939
เปิดเผย	-10.5939
แข็งแรง	-10.5939
几乎	-10.5939
超级	-10.5941
要找	-10.5945
自杀	-10.5947
▁ผมเห็น	-10.5953
สภา	-10.5956
ki	-10.5958
咪	-10.5958
桥	-10.5958
利亚	-10.5959
我们可以	-10.5959
มาให้ฉัน	-10.596
的眼睛	-10.5963
แต่งงานกับ	-10.5963
กําลังทํา	-10.5971
โอ้	-10.5975
做好	-10.5977
治疗	-10.5978
ไปก่อน	-10.598
▁他是个	-10.5986
ความหวัง	-10.5987
รู้สึกยังไง	-10.599
美好	-10.599
ประชาชน	-10.5998
สกปรก	-10.5998
句话	-10.5999
บาป	-10.6004
▁นายคิดว่า	-10.6007
ประทับใจ	-10.6018
▁對不起	-10.6019
▁不過	-10.6021
没问题	-10.6022
อยู่คนเดียว	-10.6034
▁你還	-10.6037
增	-10.6038
腦	-10.6038
數	-10.6038
贴	-10.6038
彼此	-10.6039
的样子	-10.6042
发生什么事	-10.6044
มีแค่	-10.6048
ตามมา	-10.6052
ให้หมด	-10.6053
รัง	-10.6053
ความปลอดภัย	-10.6056
响	-10.6057
凭	-10.6058
究竟	-10.6058
ที่เราจะ	-10.6059
ชิง	-10.6059
ล็อก	-10.6059
▁我才不	-10.6059
▁stop	-10.606
靠近	-10.6061
ข้างบน	-10.6061
想法	-10.6061
กับพ่อ	-10.6062
โจร	-10.6066
一生	-10.6067
这里的	-10.6067
▁你是谁	-10.6067
没想到	-10.6077
▁ฟังดู	-10.6077
จังหวะ	-10.6078
凱	-10.6078
克里斯	-10.6078
▁มันเหมือน	-10.6078
กระโดด	-10.608
這種	-10.6082
妹	-10.6087
把手	-10.6089
ยิ่งกว่า	-10.6093
的脸	-10.6097
รู้ได้ไง	-10.6098
แหล่ง	-10.6098
炮	-10.6098
โอลิเวอร์	-10.6098
记忆	-10.6098
ทําอะไรน่ะ	-10.6099
▁ไปเร็ว	-10.6116
瘋	-10.6118
禮	-10.6118
愉快	-10.6119
โซ่	-10.6122
▁ว่าไงนะ	-10.6122
ไอ้พวก	-10.6122
在外面	-10.6124
▁ทําไมคุณถึง	-10.6129
用来	-10.6131
認	-10.6134
เกือบจะ	-10.6136
竟	-10.6137
危	-10.6138
與	-10.6138
返	-10.6138
	-10.6138
蛋糕	-10.6139
▁ทําไมคุณไม่	-10.6139
แคลร์	-10.6142
ous	-10.6143
ทําทุกอย่าง	-10.6152
▁เธอกําลัง	-10.6154
▁ใจเย็นๆ	-10.6157
萝	-10.6159
คุ้มครอง	-10.6159
35	-10.6163
堂	-10.617
แอล	-10.6174
一把	-10.6178
Stefan	-10.6179
漏	-10.6179
ตัวเลข	-10.6185
ค้นพบ	-10.6185
才会	-10.6187
走开	-10.6193
▁Hi	-10.6193
蓝	-10.6198
▁我们现在	-10.62
密码	-10.6201
มีแผน	-10.6208
▁知道吗	-10.6209
ฝ่า	-10.621
车里	-10.6217
就不会	-10.6219
聲	-10.622
อินเดีย	-10.6221
แป๊บ	-10.6221
失去了	-10.6221
队长	-10.6221
大家都	-10.6222
稍	-10.6224
เตะ	-10.6224
เป็นอย่างนั้น	-10.6224
天啊	-10.6236
ิ้ล	-10.6239
炸弹	-10.6239
連	-10.624
闯	-10.624
ren	-10.6241
rr	-10.6242
รับรอง	-10.6245
▁ตอนนี้ฉัน	-10.6247
ช่วยเรา	-10.6249
เอาตัว	-10.625
手术	-10.6252
真是个	-10.6254
去看看	-10.6255
▁เพราะผม	-10.6255
ยอมแพ้	-10.6255
把这个	-10.6256
▁แล้วเราจะ	-10.6256
คนแรก	-10.6257
▁他们在	-10.6257
什	-10.6258
客人	-10.6259
厅	-10.626
躺	-10.626
也很	-10.6265
พบว่า	-10.6265
▁สวัสดีค่ะ	-10.6267
ว่ามันจะ	-10.6268
发射	-10.6271
กลางวัน	-10.6273
หมอนั่น	-10.6274
乘	-10.6281
剂	-10.6281
葬	-10.6281
อัยการ	-10.6281
ลงทุน	-10.6286
找我	-10.6286
ฉันต้องการ	-10.6288
告訴你	-10.6297
私人	-10.6297
ปู	-10.6298
ฆ่าตัวตาย	-10.6302
来看	-10.6302
爸	-10.6304
ก้อ	-10.6305
เก็บไว้	-10.6306
เอาเงิน	-10.6308
▁这里是	-10.6309
▁To	-10.631
前面	-10.6317
▁ถอยไป	-10.6317
ม์	-10.6318
▁เขาเป็นคน	-10.6318
趣	-10.6318
其它	-10.6319
在做什么	-10.632
นั่นคือ	-10.6321
故	-10.6321
辛	-10.6322
สาวน้อย	-10.6325
和平	-10.6327
ให้ใคร	-10.6328
▁เธอไม่ได้	-10.6332
ปีที่แล้ว	-10.6333
รู้ได้ยังไง	-10.6339
กฏหมาย	-10.6341
ทุกข์	-10.6343
越来越	-10.6343
▁也許	-10.6345
รู้สึกดี	-10.6345
晚了	-10.6347
卡尔	-10.6357
不錯	-10.6357
ก็เหมือนกัน	-10.6359
ไม่ใช่แค่	-10.636
样子	-10.6363
鲍	-10.6363
พนักงาน	-10.6363
爵士	-10.6365
แมรี่	-10.6365
一杯	-10.6366
▁要不	-10.6366
เข้าร่วม	-10.6369
ทําสิ่งที่	-10.6369
能找到	-10.6369
经过	-10.6374
▁当你	-10.6375
เศษ	-10.6382
ide	-10.6382
爷	-10.6384
▁friend	-10.6384
Damon	-10.6384
คัด	-10.6384
被人	-10.6385
▁你最好	-10.6385
สับสน	-10.6386
ดาร์	-10.6387
คว้า	-10.6389
มองหา	-10.6389
▁这是我的	-10.6393
也要	-10.6395
看来	-10.6395
เพิ่งจะ	-10.64
好事	-10.64
เชื่อฉัน	-10.6402
染	-10.6404
斯基	-10.6404
สํานักงาน	-10.6405
อยู่ดี	-10.6409
ite	-10.641
力量	-10.6413
ของแม่	-10.6425
佳	-10.6426
พาร์	-10.6427
พาคุณ	-10.6431
อะไรเนี่ย	-10.6442
ر	-10.6446
อดัม	-10.6446
笨蛋	-10.6447
▁นั่นคือสิ่งที่	-10.6449
เพศ	-10.6452
成功了	-10.6453
▁我给你	-10.6454
最终	-10.6455
基地	-10.6461
เป็นเพียง	-10.6462
คนใหม่	-10.6464
ะตั	-10.6464
ศาสตร์	-10.6467
既	-10.6467
舱	-10.6467
ลักพาตัว	-10.6467
การแข่งขัน	-10.6467
▁kid	-10.6468
紧急	-10.6469
玛丽	-10.647
ผมเอง	-10.6472
可惜	-10.6474
恶心	-10.6481
对付	-10.6481
▁ผมไม่อยาก	-10.6483
握	-10.6488
租	-10.6488
คุ้น	-10.649
ในปี	-10.6492
不清楚	-10.6497
告诉我们	-10.6497
所有人都	-10.6498
花了	-10.6501
尔斯	-10.6504
บอกฉันว่า	-10.6506
ยังงั้น	-10.6506
ger	-10.6507
杂	-10.6508
佬	-10.6509
敲	-10.6509
汀	-10.6509
召	-10.6509
แข็งแกร่ง	-10.6509
▁โว้ว	-10.6509
创造	-10.6513
อ้วน	-10.6514
责任	-10.652
手上	-10.652
太好了	-10.6525
ปลุก	-10.6527
สื่อสาร	-10.6531
地址	-10.6531
สารเลว	-10.6531
十年	-10.6536
▁เพราะมัน	-10.6538
▁他们是	-10.6538
เธฐเน	-10.6538
จนกว่าจะ	-10.6539
นักล่า	-10.6539
ล่ะก็	-10.6546
没关系	-10.6547
س	-10.6551
จินตนาการ	-10.6551
อื่นๆ	-10.6552
赢了	-10.6557
มากที่สุด	-10.6558
ขัน	-10.6559
遍	-10.6563
แมค	-10.6567
คือใคร	-10.6568
เธตเธ	-10.6571
เห็นมัน	-10.6571
固	-10.6572
奏	-10.6572
舰	-10.6572
論	-10.6572
说得对	-10.6573
ะฐั	-10.6574
卡特	-10.6578
那樣	-10.6583
感情	-10.6585
เวย์	-10.6586
没事吧	-10.6589
อยู่บ้าน	-10.6591
爵	-10.6592
▁before	-10.6593
ที่แท้จริง	-10.6594
父親	-10.6594
▁My	-10.6594
下來	-10.6598
ลอน	-10.6606
ตัวแทน	-10.6607
ina	-10.6609
ปราสาท	-10.6615
飛	-10.6615
พลังงาน	-10.6617
ผสม	-10.6618
的电话	-10.6618
某个	-10.6619
星球	-10.6622
妻	-10.6628
ลิ้น	-10.6629
败	-10.6629
搜	-10.6633
ใช้ได้	-10.6634
烤	-10.6636
เคลื่อนไหว	-10.6636
印度	-10.6639
ไวน์	-10.6639
▁hand	-10.6642
命运	-10.6652
แขวน	-10.6657
หมุน	-10.6657
背叛	-10.6658
อะไรวะ	-10.6659
一块	-10.666
有多少	-10.6663
确保	-10.6664
世界上	-10.6664
ปลด	-10.6667
毁	-10.6671
อริ	-10.6677
ล้อม	-10.6677
hu	-10.6678
欢	-10.6678
แบบไหน	-10.6678
傳	-10.6678
齐	-10.6678
อาบน้ํา	-10.6679
想起	-10.6679
รายละเอียด	-10.6679
绑架	-10.6679
พาย	-10.668
回家了	-10.6682
เหรอครับ	-10.6686
ยังไม่ตาย	-10.6687
脑子	-10.6688
不许	-10.6688
▁你又	-10.669
ปฏิบัติการ	-10.669
简	-10.6696
陷	-10.6698
อย่างงั้น	-10.6699
ปรึกษา	-10.67
สมัคร	-10.67
▁first	-10.67
▁ราตรีสวัสดิ์	-10.67
史塔克	-10.67
洁	-10.67
胖	-10.67
認識	-10.67
资料	-10.6701
有什麼	-10.6702
▁night	-10.6703
旅行	-10.6706
▁我听说	-10.6708
可怕	-10.6708
跑了	-10.6709
▁她说	-10.671
▁你已经	-10.6715
玩意	-10.6717
末	-10.672
็อต	-10.6721
偏	-10.6721
ปรากฏ	-10.6722
真是太	-10.6722
100	-10.6722
ความสุข	-10.6723
นานา	-10.6726
警方	-10.6726
就好了	-10.6727
พอที่จะ	-10.6729
กวน	-10.6729
ชัดๆ	-10.6736
ทําอย่างนี้	-10.6741
不相信	-10.6741
▁name	-10.6745
▁你想要	-10.6745
ได้บ้าง	-10.6745
ข้อเสนอ	-10.6745
▁home	-10.6746
บางอย่างที่	-10.6746
数字	-10.6747
告诉她	-10.675
多么	-10.6753
破坏	-10.6755
จํานวนมาก	-10.6755
	-10.6764
อ่อนแอ	-10.6766
ยะ	-10.6767
▁เขาต้อง	-10.6773
运动	-10.6774
法官	-10.6775
ด้านหลัง	-10.6776
上车	-10.6777
这种事	-10.6782
ขวด	-10.6784
業	-10.6786
線	-10.6786
▁โดยเฉพาะ	-10.6787
เก็ต	-10.6789
发生了什么	-10.6796
ภูมิ	-10.6803
คล้าย	-10.6807
▁anything	-10.6807
撑	-10.6807
賽	-10.6807
ยื่น	-10.6807
似	-10.6808
▁แม้ว่า	-10.6809
的感觉	-10.6809
ออกจากที่นี่	-10.6811
▁那不是	-10.6811
gu	-10.682
28	-10.6821
▁我还是	-10.6824
ไม่มีทางเลือก	-10.6826
วิต	-10.6827
ตะวันตก	-10.6829
珊	-10.6829
กระจก	-10.6829
โล่	-10.6833
▁ฉันเพิ่ง	-10.6833
มีงาน	-10.6836
ดัก	-10.6842
อย่างมาก	-10.6842
ดําเนินการ	-10.6846
不应该	-10.6846
▁these	-10.685
帐	-10.6851
会儿	-10.6854
不记得	-10.6856
不住	-10.6862
▁我们已经	-10.6865
性感	-10.6867
遠	-10.6872
状况	-10.6873
ยังไม่รู้	-10.6873
ไก	-10.6873
冒险	-10.6873
เธนเธ	-10.6879
ถูกยิง	-10.6883
รักษาความปลอดภัย	-10.6885
▁我就知道	-10.6885
的想法	-10.6885
ทําเพื่อ	-10.6887
那么多	-10.6887
ริช	-10.6888
เองก็	-10.6891
聯	-10.6894
ตลาด	-10.6894
ครั้งเดียว	-10.6894
▁guys	-10.6895
▁boy	-10.6896
▁แหม	-10.6896
人物	-10.6897
执行	-10.6899
ไปให้พ้น	-10.6901
คุยเรื่อง	-10.6902
มัก	-10.6906
或许	-10.6907
เกี่ยวข้องกับ	-10.6909
นอร์	-10.691
鼠	-10.6912
lin	-10.6913
เฮ้	-10.6914
จี้	-10.6914
â	-10.6916
惑	-10.6916
不幸	-10.692
送到	-10.692
嫌	-10.6922
送你	-10.6924
ยัด	-10.6926
เธชเธ	-10.6927
始	-10.6928
งานเลี้ยง	-10.6934
动手	-10.6934
เติม	-10.6937
พักผ่อน	-10.6938
符	-10.6938
ธุระ	-10.6938
務	-10.6938
墓	-10.6938
▁kind	-10.6938
▁keep	-10.6938
ank	-10.6946
เป็นไร	-10.6949
ช่วยผม	-10.6949
โช	-10.6952
พูดคุย	-10.6954
How	-10.6958
坚	-10.6958
含	-10.696
ชะมัด	-10.696
นิวยอร์ค	-10.696
犹	-10.696
蕾	-10.696
轉	-10.696
เฮนรี่	-10.696
ลอก	-10.6961
คู่หู	-10.6963
士兵	-10.6964
จําไม่ได้	-10.6964
gi	-10.6966
cu	-10.6969
ดึก	-10.6973
▁但这	-10.6974
启	-10.6979
ตอนเช้า	-10.698
广	-10.6981
lie	-10.6981
兔	-10.6982
割	-10.6982
督	-10.6982
資	-10.6982
啤酒	-10.6982
เบลล่า	-10.6985
▁part	-10.6986
▁put	-10.6988
วิทยาศาสตร์	-10.6991
帽子	-10.6992
我爸爸	-10.6993
是我们的	-10.6995
แย	-10.6997
拜托	-10.7003
ฟุต	-10.7004
นายอําเภอ	-10.7004
เต้นรํา	-10.7004
藥	-10.7004
▁new	-10.7004
▁คุณดู	-10.7006
▁real	-10.7008
เป็นหนึ่งใน	-10.701
发生了	-10.7011
▁所以我们	-10.7013
▁ผมไม่เคย	-10.7017
漫	-10.7026
浴	-10.7026
痕	-10.7026
愚蠢	-10.7026
ตัวอย่าง	-10.7027
现实	-10.7029
保罗	-10.703
好消息	-10.703
馬上	-10.7036
▁我的天	-10.704
毒品	-10.7043
อย่างเดียว	-10.7043
没办法	-10.7046
การทํางาน	-10.7048
企	-10.7048
ţ	-10.7048
▁world	-10.7048
▁รับทราบ	-10.705
อาศัยอยู่	-10.7052
過去	-10.7052
▁ask	-10.7057
สมบูรณ์	-10.7059
▁ผมเคย	-10.7064
แผนก	-10.7064
穦	-10.707
จิน	-10.7071
感激	-10.7072
ล่าสุด	-10.7078
ได้ยินว่า	-10.708
ไม่ทัน	-10.708
劫	-10.7092
匹	-10.7092
拼	-10.7092
Penny	-10.7092
嗨	-10.7095
表示	-10.7095
เเม่	-10.7097
ช่วยได้	-10.7098
เป็นพ่อ	-10.7098
ฆ่ามัน	-10.7101
mp	-10.7105
เคลียร์	-10.7114
琴	-10.7115
แก้แค้น	-10.7115
指挥	-10.7116
根据	-10.7116
ไม่เคยเห็น	-10.7116
▁last	-10.7117
หมายถึงอะไร	-10.7118
กัก	-10.7119
ฟังดู	-10.7119
▁เพราะงั้น	-10.7121
สิ่งที่ผม	-10.7123
个小时	-10.7124
▁แบบว่า	-10.7126
飞行	-10.713
还好吗	-10.7135
ขี่	-10.7136
視	-10.7137
พัฒนา	-10.7137
乡	-10.7137
圖	-10.7137
胎	-10.7137
หน่อยได้ไหม	-10.7137
荣幸	-10.7138
เทป	-10.714
200	-10.714
還沒	-10.7144
说谎	-10.7144
的方法	-10.7146
จ่ายเงิน	-10.7146
หลายคน	-10.7158
▁In	-10.7159
กระจาย	-10.7159
唔	-10.7159
คนพวกนี้	-10.716
▁我很好	-10.7166
กเกอร์	-10.7168
จัดการกับ	-10.7173
的机会	-10.7176
แสดงความ	-10.7178
ของโลก	-10.7179
เคราะห์	-10.7181
逊	-10.7182
ปกครอง	-10.7182
ไส้	-10.7182
ชัค	-10.7182
赶快	-10.7183
▁อย่าเพิ่ง	-10.7186
เช่า	-10.7188
将军	-10.7189
▁นี่ไง	-10.719
ไหม้	-10.7192
时刻	-10.7195
说的是	-10.7199
英国	-10.72
▁La	-10.72
认识你	-10.7201
砍	-10.7204
▁pre	-10.7206
代价	-10.7206
ความสนใจ	-10.7217
干吗	-10.7218
神经	-10.7223
เซน	-10.7223
ฎ	-10.7224
罢	-10.7227
จ้อง	-10.7227
เธฃเธฒ	-10.723
ศึกษา	-10.7233
วอร์	-10.7234
可真	-10.7236
而且	-10.7236
เป็นเวลา	-10.724
分手	-10.7246
对我们	-10.7247
不觉得	-10.7248
芭	-10.7249
趟	-10.7249
靜	-10.7249
มากพอ	-10.7251
戒指	-10.7252
เก้า	-10.726
回事	-10.7261
付出	-10.7261
ช่วยเธอ	-10.7262
เข้าสู่	-10.7262
คุณสามารถ	-10.7262
制造	-10.7266
绑	-10.7271
ع	-10.7272
喊	-10.7272
เธซเธก	-10.7272
เนี้ย	-10.7273
โรคจิต	-10.7274
做不到	-10.7275
ดินแดน	-10.7277
▁我需要你	-10.7277
บัง	-10.7282
▁Na	-10.7282
ขํา	-10.7284
ไม่ทราบ	-10.7285
ling	-10.729
▁Mr	-10.7292
在家	-10.7294
ب	-10.7295
逐	-10.7295
ทําความสะอาด	-10.7295
เค้ก	-10.7295
ซะหน่อย	-10.7296
เคลย์	-10.7297
สูญ	-10.7303
▁这是个	-10.7311
vo	-10.7311
执	-10.7312
00}	-10.7314
正好	-10.7314
อาณาจักร	-10.7317
ทอมมี่	-10.7318
▁very	-10.7319
น่าจะเป็น	-10.7324
เป็นเหมือน	-10.7326
勇	-10.7338
猛	-10.734
ประสบการณ์	-10.734
技术	-10.7341
สะกด	-10.7341
เซฟ	-10.7343
手術	-10.7345
作用	-10.7346
那家伙	-10.7347
以来	-10.7349
Sam	-10.735
相当	-10.7355
▁ฉันคง	-10.7357
กอด	-10.7358
เธกเธฑเธ	-10.7358
介	-10.7359
巫	-10.7361
在说什么	-10.7361
ระยํา	-10.7363
類	-10.7363
ลูกๆ	-10.7364
ไม่ทราบว่า	-10.7364
神秘	-10.7365
▁และเมื่อ	-10.7366
สายลับ	-10.737
来这	-10.7374
很喜欢	-10.7374
好玩	-10.7376
二十	-10.738
ริส	-10.7385
乖	-10.7386
拔	-10.7386
สะพาน	-10.7386
葛	-10.7386
เทียบ	-10.7386
习惯	-10.7386
▁girl	-10.7386
การเดินทาง	-10.7387
堆	-10.7388
高中	-10.7392
位置	-10.7396
▁谢了	-10.7396
疯子	-10.7399
สู้กับ	-10.7407
兴趣	-10.7408
ขึ้นรถ	-10.7408
หมื่น	-10.7409
倍	-10.7409
舍	-10.7409
恐惧	-10.7409
แผ่น	-10.7412
แอนดี้	-10.7412
นิยาย	-10.7413
▁Pe	-10.7413
回头	-10.7415
ต่อมา	-10.7422
เต็มที่	-10.7423
▁ได้เวลา	-10.7426
ไปทั่ว	-10.7428
แรน	-10.7429
▁บอกมา	-10.7431
祸	-10.7432
学习	-10.7433
▁ผมเสียใจ	-10.744
听着	-10.7442
跟我们	-10.7444
要不要	-10.7454
额	-10.7455
▁但她	-10.7457
บางส่วน	-10.746
มาร์ติน	-10.7465
說什麼	-10.7466
หน้าตา	-10.7471
ความเจ็บปวด	-10.7475
伪	-10.7478
อาชญากรรม	-10.7478
นิยม	-10.7478
向我	-10.748
故意	-10.748
▁我以前	-10.7481
男朋友	-10.7487
เป็นเจ้าของ	-10.7487
说明	-10.7487
打电话给	-10.7488
这就是	-10.749
▁Now	-10.749
的妻子	-10.7491
▁start	-10.7496
▁place	-10.7501
眠	-10.7501
▁รอเดี๋ยว	-10.7504
ทาส	-10.7518
กวาด	-10.7519
98	-10.7519
不能再	-10.752
เเน่	-10.7523
กระดาษ	-10.7524
ฉีด	-10.7524
岸	-10.7524
晨	-10.7524
瞎	-10.7524
糊	-10.7524
คะแนน	-10.7524
咋	-10.7524
การรักษา	-10.7525
怎麼樣	-10.7526
บ้างมั้ย	-10.7531
▁po	-10.7532
คนไหน	-10.7535
有個	-10.7539
เทอ	-10.7541
แคร์	-10.7542
彈	-10.7548
關係	-10.7548
▁早上好	-10.7549
试图	-10.755
就會	-10.7554
ทั้งคืน	-10.7555
了很多	-10.7556
กาล	-10.7557
ใครก็ตาม	-10.7562
นี่นา	-10.7563
ก์	-10.7564
▁เพราะคุณ	-10.7566
▁เดี๋ยวฉัน	-10.7569
ตั๋ว	-10.7571
โบสถ์	-10.7571
區	-10.7571
奥利弗	-10.7571
書	-10.7571
折磨	-10.7571
▁things	-10.7572
ลาน	-10.7578
▁Dan	-10.7582
▁แล้วฉันก็	-10.7588
▁我没事	-10.759
ซับซ้อน	-10.7594
椅	-10.7594
祈祷	-10.7594
城堡	-10.7596
的力量	-10.7598
ney	-10.7598
再也不	-10.7599
意见	-10.7604
似的	-10.7605
阳	-10.7611
▁เสียใจด้วย	-10.7613
▁芬奇	-10.7618
ฮี	-10.7622
พ่อฉัน	-10.7623
โกง	-10.7627
แตะ	-10.7629
26	-10.7634
วิทยา	-10.7641
▁through	-10.7641
迈	-10.7641
ควีน	-10.7641
▁聽著	-10.7642
告诉他们	-10.7642
โครงการ	-10.7642
ผลัก	-10.7643
▁可我	-10.7644
世上	-10.7647
ian	-10.765
机器人	-10.7655
ฟู	-10.7657
แม็ค	-10.7659
予	-10.7665
窃	-10.7665
▁ถ้าหาก	-10.7675
就行了	-10.7677
火车	-10.7684
弃	-10.7685
恢复	-10.7688
แอนนา	-10.7691
說話	-10.7696
ถ่ายรูป	-10.7699
▁เข้าใจมั้ย	-10.7699
▁但如果	-10.7702
盯着	-10.7703
มิล	-10.7705
毕	-10.771
▁ยินดีต้อนรับ	-10.7711
จักรวาล	-10.7712
卻	-10.7712
对方	-10.7712
ห่างจาก	-10.7712
▁ไม่ว่าจะ	-10.7714
不敢	-10.7717
发誓	-10.7721
▁我不明白	-10.7723
ลงโทษ	-10.7724
▁你是不是	-10.7735
คลั่ง	-10.7736
售	-10.7736
港	-10.7736
隨	-10.7736
▁believe	-10.7736
อย่างยิ่ง	-10.7736
▁我还以为	-10.7738
แหง	-10.7739
▁Me	-10.774
เผ่า	-10.7742
จัก	-10.7743
อาชีพ	-10.7744
名单	-10.7749
去拿	-10.7751
ออกแบบ	-10.7752
รู้มั้ยว่า	-10.7754
มีปัญหาอะไร	-10.7754
วิก	-10.7755
心理	-10.7756
穿着	-10.7756
▁你不知道	-10.7757
ك	-10.7759
ประสงค์	-10.7759
宗	-10.7759
จมูก	-10.7759
หมั้น	-10.7759
เคยทํา	-10.7762
能量	-10.7766
อิสระ	-10.7767
通常	-10.777
▁ผมจะไม่	-10.7771
给他们	-10.7782
เวล	-10.7782
彻	-10.7783
怒	-10.7783
幽	-10.7783
扣	-10.7783
▁around	-10.7783
问我	-10.7788
gan	-10.7788
ไม่เป็นอะไร	-10.7788
的消息	-10.7798
เมื่อกี้	-10.78
之中	-10.78
这点	-10.7801
泥	-10.7807
นิกิต้า	-10.7807
羞	-10.7807
託	-10.7807
不会再	-10.7809
อย่างน้อย	-10.7809
สั่งให้	-10.7816
ใบหน้า	-10.7827
ลเลอร์	-10.7831
墨	-10.7831
珠	-10.7831
赖	-10.7831
อะไรทั้งนั้น	-10.7835
บอกนาย	-10.7836
คําแนะนํา	-10.7837
该怎么办	-10.7838
ก็เหมือน	-10.7838
▁An	-10.7841
ที่ยิ่งใหญ่	-10.7841
ในตอนนี้	-10.7842
ร์รี่	-10.7843
ตู	-10.7843
十分	-10.7849
▁ฉันคิดว่าฉัน	-10.7853
เรย์	-10.7854
ฉบับ	-10.7855
泽	-10.7855
勇敢	-10.7856
萨姆	-10.7859
less	-10.7859
เธอต้องการ	-10.7859
条件	-10.7862
ในวันนี้	-10.7869
搞什么	-10.7872
▁ตา	-10.7877
责	-10.7878
ทะเลาะ	-10.7879
一边	-10.7879
แจ๊ค	-10.788
轻松	-10.788
你的朋友	-10.7882
斯坦	-10.7884
到达	-10.7885
เพอร์	-10.7893
ัญ	-10.7898
▁ยินดีด้วย	-10.7899
ก็พอ	-10.7899
▁guy	-10.7903
盡	-10.7903
สมุด	-10.7903
ฆ่าเธอ	-10.7903
ไวรัส	-10.7904
กล่าวว่า	-10.7908
议员	-10.791
倒是	-10.7917
ซาก	-10.7925
ไม่แน่ใจ	-10.7927
勃	-10.7927
献	-10.7927
蘭	-10.7927
永遠	-10.7928
关键	-10.7928
骑士	-10.7929
นอนกับ	-10.7933
也可以	-10.7935
ฉี่	-10.7938
荣	-10.7951
惠	-10.7951
昏	-10.7951
碍	-10.7951
คืนมา	-10.7954
▁exp	-10.7966
那位	-10.7967
管理	-10.7971
▁也许你	-10.7973
Serena	-10.7976
สมบัติ	-10.7976
奉	-10.7976
張	-10.7976
ผู้ต้องสงสัย	-10.7976
เกรงว่า	-10.7977
เล่นเกม	-10.7977
house	-10.7978
教堂	-10.7978
ไพ่	-10.7981
ไม่อาจ	-10.7982
会没事的	-10.7982
พันธ	-10.7983
บ้าๆ	-10.7983
สีแดง	-10.799
มีเพื่อน	-10.7991
给你们	-10.7992
เกมส์	-10.7993
ประกอบ	-10.8
链	-10.8
เข้าถึง	-10.8003
แคน	-10.8004
吉姆	-10.8005
▁own	-10.8008
▁เรากําลังจะ	-10.801
▁ลูกรัก	-10.8015
地图	-10.8018
▁我覺得	-10.8021
那些人	-10.8022
彩	-10.8024
$	-10.8024
復	-10.8024
วอลเตอร์	-10.8027
เพน	-10.8032
มีอํานาจ	-10.8042
最後	-10.8042
荷	-10.8049
灾	-10.8049
踢	-10.8049
情況	-10.805
พ่อของฉัน	-10.805
程序	-10.805
启动	-10.8052
เตรียมตัว	-10.8058
心里	-10.8062
แม่น้ํา	-10.8062
幫我	-10.8064
สิทธิ์	-10.8066
決	-10.8072
甘	-10.8073
	-10.8073
บริเวณ	-10.8073
▁those	-10.8073
延	-10.8073
肥	-10.8073
伟大的	-10.8074
我妈	-10.8076
ผลงาน	-10.8077
ซิน	-10.8082
หมายความว่ายังไง	-10.8083
ป้าย	-10.8092
48	-10.8095
宿	-10.8098
尘	-10.8098
狠	-10.8098
竞	-10.8098
ก่อนหน้านี้	-10.8099
นักรบ	-10.81
般	-10.8105
ฟอร์ด	-10.8108
没用	-10.8109
哎	-10.8123
不算	-10.8124
合适	-10.8125
เนอะ	-10.8125
神父	-10.8127
Carol	-10.8128
ไมเคิล	-10.8128
สักพัก	-10.8133
เสา	-10.8134
▁我也不知道	-10.8135
获得	-10.8144
的位置	-10.8146
詹姆斯	-10.8147
说实话	-10.8148
จับตัว	-10.8148
อยากให้ฉัน	-10.815
等一下	-10.8151
ทุกท่าน	-10.8151
只想	-10.8152
tic	-10.8153
▁เย้	-10.8153
ออร์	-10.8153
วัย	-10.8155
ที่คุณจะ	-10.8159
ช่วยเขา	-10.8168
从来没有	-10.8171
卧	-10.8172
春	-10.8172
秋	-10.8172
風	-10.8172
璶	-10.8172
辣	-10.8172
死定了	-10.8172
想办法	-10.818
ด่า	-10.8193
就行	-10.8195
▁快跑	-10.8195
เติบโต	-10.8197
蛇	-10.8197
น่าสงสาร	-10.8197
ไอ้นี่	-10.82
上床	-10.8202
顺利	-10.8204
▁die	-10.8204
▁ตอนนี้เรา	-10.821
一周	-10.821
的照片	-10.8211
一群	-10.8214
วุ่นวาย	-10.8222
เอฟบีไอ	-10.8222
柜	-10.8222
ทิ้งไว้	-10.8224
บอกเรา	-10.8228
▁told	-10.8234
▁เข้าใจไหม	-10.8243
เยอรมัน	-10.8247
瞒	-10.8247
什么都没	-10.8247
就知道	-10.8248
▁因为他	-10.8251
魔鬼	-10.8251
อยู่ห่าง	-10.8252
กินข้าว	-10.8253
▁我记得	-10.826
เวส	-10.826
▁有时候	-10.8261
基本	-10.8262
อย่างดี	-10.8262
▁Li	-10.8266
ق	-10.8272
นิวยอร์ก	-10.8272
繼續	-10.8272
ท่าทาง	-10.8272
ทุกที่	-10.8272
สิ้นสุด	-10.8274
▁นั่นไง	-10.8274
速度	-10.8276
เจ้าหญิง	-10.8279
สืบสวน	-10.828
ไช	-10.8287
的生命	-10.8291
掩	-10.8296
สะอาด	-10.8297
▁而不是	-10.8297
別人	-10.83
想让我	-10.831
找出	-10.8313
ข่าวดี	-10.8319
親	-10.8319
ต่างกัน	-10.8321
費	-10.8322
摔	-10.8322
講	-10.8322
เดม่อน	-10.8322
▁made	-10.8323
无辜	-10.8323
兩個	-10.8325
確定	-10.8325
ผู้ชายคนนี้	-10.8336
亲自	-10.8336
并没有	-10.8338
日本	-10.8346
狄	-10.8347
田	-10.8347
都可以	-10.8351
老鼠	-10.8352
瑞克	-10.8355
▁เราจะไม่	-10.8356
这一点	-10.8357
มีสิทธิ์	-10.8358
就不能	-10.836
บ้าอะไร	-10.836
天才	-10.8361
问问	-10.8368
侵	-10.8371
期待	-10.8371
援	-10.8372
估	-10.8372
วัตถุ	-10.8372
滿	-10.8372
ขู่	-10.8372
วิจัย	-10.8372
仙	-10.8372
玉	-10.8372
你爸爸	-10.8372
周末	-10.8374
空间	-10.8382
rew	-10.8383
นายพล	-10.8387
▁ขอโทษด้วย	-10.8396
สหรัฐ	-10.8397
咯	-10.8398
押	-10.8398
เสริม	-10.8398
怎樣	-10.8398
ลอนดอน	-10.8398
เข้าใจผิด	-10.8399
这么想	-10.8406
错过	-10.8407
不见了	-10.8407
จันทร์	-10.8423
冻	-10.8423
牵	-10.8423
辞	-10.8423
钻	-10.8423
สแตน	-10.8423
▁show	-10.8423
估计	-10.8424
▁沒錯	-10.8424
▁because	-10.8425
โรเบิร์ต	-10.8427
社会	-10.8427
ลูซี่	-10.8429
ตอบแทน	-10.8431
超过	-10.8431
▁งั้นเรา	-10.8431
วิค	-10.8439
互	-10.8445
Jeremy	-10.8448
ลักษณะ	-10.8448
墨西哥	-10.8448
維	-10.8448
趕	-10.8448
复杂	-10.8449
แคล	-10.8452
หมู่	-10.8453
เล่าเรื่อง	-10.8455
天堂	-10.8457
มองไม่เห็น	-10.8458
She	-10.8462
▁เมื่อคุณ	-10.8468
裂	-10.8474
怎么知道	-10.8478
เออร์	-10.8479
▁Get	-10.8481
正式	-10.8482
会让你	-10.8482
คิง	-10.8482
ป์	-10.8482
▁มันอาจจะ	-10.8483
▁ให้ตาย	-10.8483
去世	-10.8484
สมบูรณ์แบบ	-10.8487
好处	-10.8488
▁ทําไมต้อง	-10.849
เอาแต่	-10.8492
从来没	-10.8493
ดดี้	-10.8495
伸	-10.85
參	-10.85
ตํานาน	-10.85
議	-10.85
ชอว์	-10.85
女巫	-10.8502
ten	-10.8502
尊重	-10.8503
这场	-10.8503
็อป	-10.8503
สิ่งเดียวที่	-10.8505
两天	-10.8507
กําลังพูดถึง	-10.851
แคท	-10.8513
▁big	-10.8513
เครื่องมือ	-10.8517
停下来	-10.8519
รังเกียจ	-10.8525
绕	-10.8525
▁nothing	-10.8525
邪恶	-10.8526
เรด	-10.8526
กรง	-10.8528
关闭	-10.8529
▁ขณะที่	-10.8532
▁行了	-10.8533
最大的	-10.8534
▁ขอบใจนะ	-10.8536
▁แล้วฉันจะ	-10.8537
▁comp	-10.8539
▁cha	-10.8541
โดยไม่มี	-10.8544
尝试	-10.8551
บุหรี่	-10.8551
弗兰克	-10.8551
缩	-10.8551
	-10.8551
▁ฟินช์	-10.8551
距离	-10.8552
这个世界	-10.8558
เจออะไร	-10.8574
帮我们	-10.8575
Lisbon	-10.8577
检察官	-10.8577
甩	-10.8577
บางครั้ง	-10.8579
แห้ง	-10.858
จอดรถ	-10.8582
ยอมให้	-10.8585
ออส	-10.8586
放心	-10.8587
เป็นบ้า	-10.8588
有问题	-10.8596
ออกไปข้างนอก	-10.86
▁เห็นมั้ย	-10.8602
壮	-10.8603
เป็นแบบนั้น	-10.8603
你妈妈	-10.8603
จับกุม	-10.8603
ขั้นตอน	-10.8609
วู้ด	-10.8611
เน่า	-10.8612
梯	-10.8627
序	-10.8627
叛	-10.8627
潮	-10.8628
▁great	-10.8628
荡	-10.8628
▁dead	-10.8634
แพง	-10.8636
บุตร	-10.8639
尽力	-10.864
AN	-10.864
心情	-10.8641
เหมาะกับ	-10.8643
▁Mi	-10.8646
▁ผมไม่รู้ว่า	-10.865
เถอะน่า	-10.8651
องค์กร	-10.8653
ดารา	-10.8653
บริหาร	-10.8654
融	-10.8654
ผู้ช่วย	-10.8656
ถั่ว	-10.8658
▁fucking	-10.8659
即将	-10.8666
27	-10.8668
很清楚	-10.867
想像	-10.8677
冬	-10.868
โบราณ	-10.868
呵	-10.868
ไปจากที่นี่	-10.8681
价值	-10.8681
▁มันก็แค่	-10.8683
หนทาง	-10.8683
จูเลีย	-10.8684
强大	-10.8684
พูดแบบนั้น	-10.8687
快走	-10.8689
ที่อื่น	-10.8695
น้ําหนัก	-10.8695
生存	-10.8697
ครั้งหนึ่ง	-10.87
银	-10.8702
受害者	-10.8707
換	-10.8707
桶	-10.8707
⊿	-10.8707
泳	-10.8707
肩	-10.8707
▁after	-10.8707
伦敦	-10.8707
หมู่บ้าน	-10.871
道理	-10.871
เห็นได้ชัด	-10.8711
โมโห	-10.8711
ไว้ก่อน	-10.8712
也不能	-10.8714
tain	-10.8714
杀害	-10.8732
瓜	-10.8732
寫	-10.8733
裁	-10.8733
gen	-10.8735
只是想	-10.8746
▁ฉันไม่เข้าใจ	-10.8746
没见过	-10.8748
束	-10.8758
账	-10.8759
壁	-10.8759
涉	-10.8759
好笑	-10.876
อดทน	-10.8761
น่าเบื่อ	-10.8771
很想	-10.8773
权利	-10.8776
ทําหน้าที่	-10.8783
ther	-10.8785
盛	-10.8785
愈	-10.8785
抬	-10.8785
艇	-10.8785
頓	-10.8785
▁better	-10.8785
สตีฟ	-10.8786
是时候	-10.8796
อยู่ข้างนอก	-10.8803
沒人	-10.8803
地点	-10.8807
興	-10.8812
佐	-10.8812
规矩	-10.8812
联邦	-10.8812
แฮร์รี่	-10.8816
带上	-10.8816
布鲁	-10.8817
ize	-10.8817
สกี้	-10.8819
▁For	-10.8821
ไน	-10.8821
节目	-10.8822
有机会	-10.8825
เป็นอิสระ	-10.883
▁我发誓	-10.8834
謝	-10.8837
驾	-10.8838
贩	-10.8838
Carl	-10.8843
▁head	-10.8849
ให้แน่ใจว่า	-10.885
ผ่า	-10.8851
部队	-10.8851
Peter	-10.8853
乎	-10.8855
วันนั้น	-10.8855
พร้อมที่จะ	-10.8856
พูดคุยกับ	-10.8859
永远不会	-10.8862
▁ปล่อยฉัน	-10.8862
คเกอร์	-10.8862
เข็ม	-10.8864
ฝรั่งเศส	-10.8865
侠	-10.8865
轨	-10.8865
几年	-10.8865
Clay	-10.8865
เด็ดขาด	-10.8865
汤姆	-10.8866
那么做	-10.8866
▁เอ้า	-10.8871
带到	-10.8872
ใหม	-10.8874
ลูกน้อง	-10.8875
秘	-10.8888
▁เราน่าจะ	-10.889
溜	-10.8891
绳	-10.8891
裏	-10.8891
語	-10.8891
	-10.8891
聽到	-10.8893
取消	-10.8895
qui	-10.8897
全世界	-10.8899
辆车	-10.8903
HR	-10.8904
贝拉	-10.891
触	-10.8916
惡	-10.8918
扇	-10.8918
傻瓜	-10.8919
สวด	-10.8919
感觉到	-10.892
มั้ยคะ	-10.8924
ลูกหมา	-10.8925
เป็นมนุษย์	-10.8926
เละ	-10.8926
因為	-10.8934
เหมาะสม	-10.8934
别想	-10.8936
频	-10.8939
这条	-10.8939
ดูเหมือนจะ	-10.894
仇	-10.8943
จัดการเอง	-10.8943
Maybe	-10.8945
状态	-10.8945
เช่นเดียวกับ	-10.8946
▁Look	-10.8946
职业	-10.8947
สนามบิน	-10.8947
▁live	-10.8956
▁Sp	-10.8963
▁ขอโทษค่ะ	-10.8965
两个人	-10.8966
那裡	-10.8968
เปรียบ	-10.8971
▁我的意思是	-10.8972
ise	-10.8974
周围	-10.8974
นู	-10.8978
▁OK	-10.8978
▁我以为你	-10.8984
女王	-10.8985
无关	-10.8989
薄	-10.8998
闲	-10.8998
ออฟฟิศ	-10.8998
寶貝	-10.8998
แพร่	-10.8999
介意	-10.8999
特殊	-10.8999
des	-10.9
投资	-10.9
旁边	-10.9
▁gra	-10.9002
บันได	-10.9004
วิชา	-10.9005
ฟอร์	-10.9011
留下来	-10.9019
▁happen	-10.9021
成员	-10.9023
没时间	-10.9025
训	-10.9025
奸	-10.9025
忽	-10.9025
慈	-10.9025
脉	-10.9025
诱	-10.9025
ทารก	-10.9025
辦法	-10.9027
某种	-10.9027
ร้ายแรง	-10.9031
接到	-10.9033
演出	-10.9033
จะเกิดอะไรขึ้น	-10.9037
▁ท่านครับ	-10.9044
เน็ต	-10.9045
เตรียมพร้อม	-10.905
俄	-10.9051
傢伙	-10.9052
Klaus	-10.9052
翻译	-10.9052
jo	-10.9055
รัด	-10.9059
暴力	-10.9062
注意到	-10.9064
意识到	-10.9071
หย่า	-10.9072
看著	-10.9074
叫什么	-10.9077
ต้องรีบ	-10.9079
Bobby	-10.9079
เสียดาย	-10.9079
健康	-10.908
เชน	-10.9082
▁如果你想	-10.9085
放手	-10.9086
กี่คน	-10.9086
พาเรา	-10.9096
ส่อง	-10.9099
▁好啦	-10.9099
術	-10.91
จอน	-10.9103
เกิดขึ้นกับ	-10.9105
วันพรุ่งนี้	-10.9106
健	-10.9106
仅仅	-10.9107
โรงงาน	-10.9109
ออน	-10.9115
เกย์	-10.9123
หอม	-10.9128
屠	-10.9134
拆	-10.9134
鎮	-10.9134
300	-10.9134
那只	-10.9135
นักข่าว	-10.9136
分鐘	-10.9138
นักแสดง	-10.9138
实验	-10.9142
▁ผมอยากจะ	-10.9148
ทุกๆคน	-10.9158
เผชิญ	-10.9161
ญี่ปุ่น	-10.9161
終	-10.9161
ย้ายไป	-10.9162
暂时	-10.9166
准备好了吗	-10.9174
pa	-10.9177
▁ได้โปรดเถอะ	-10.9179
หิมะ	-10.9189
▁always	-10.9189
แบลร์	-10.9189
餐厅	-10.9189
很多人	-10.9189
某人	-10.919
任何事	-10.9199
มันยาก	-10.9203
สิ่งนั้น	-10.9204
บอกเขาว่า	-10.9204
ถือว่า	-10.9204
ไม่จําเป็น	-10.9206
只需要	-10.9209
จะไม่มีวัน	-10.9209
สะดวก	-10.9216
晓	-10.9216
耀	-10.9216
臂	-10.9216
显示	-10.9217
▁เเละ	-10.9218
亨利	-10.9219
警卫	-10.9219
นอนหลับ	-10.9223
几个月	-10.9225
เมตร	-10.9236
最高	-10.924
这地方	-10.9242
ดีกว่านี้	-10.9242
尺	-10.9243
振	-10.9244
钢	-10.9244
来这儿	-10.9244
▁อีกอย่าง	-10.9245
เพนนี	-10.9247
要走了	-10.925
噢	-10.9251
▁เดี๋ยวผม	-10.9257
▁等下	-10.9258
放开	-10.9265
เป้น	-10.9266
笨	-10.927
你爸	-10.9271
กีฬา	-10.9271
สูตร	-10.9271
蛮	-10.9271
蜂	-10.9271
▁turn	-10.9271
ล้ํา	-10.9271
怎麼辦	-10.9272
จ่ายค่า	-10.9277
聊聊	-10.9277
最重要的	-10.9281
ยังเด็ก	-10.9283
หลบหนี	-10.9283
不确定	-10.9286
ขนม	-10.9292
อาศัย	-10.9294
มหาวิทยาลัย	-10.9299
เซ็กส์	-10.9299
伏	-10.9299
唤	-10.9299
桃	-10.9299
趁	-10.9299
协议	-10.9299
แฮน	-10.93
นิสัย	-10.93
参与	-10.9302
สุขภาพ	-10.9302
ภาวะ	-10.9306
▁เพื่อที่จะ	-10.9313
ที่คุณต้องการ	-10.9313
另	-10.9315
หลายอย่าง	-10.9322
FFFF	-10.9324
户	-10.9325
协	-10.9326
▁done	-10.9326
บําบัด	-10.9327
恕	-10.9327
Blair	-10.9327
毕业	-10.9328
เล็บ	-10.9334
不认识	-10.9334
รุ่ง	-10.9335
已经死了	-10.9338
ปั่น	-10.9339
เธตเธขเธ	-10.9345
这东西	-10.935
▁你在说什么	-10.935
เป็นครั้งแรก	-10.9352
▁后来	-10.9352
護	-10.9353
拦	-10.9355
顯	-10.9355
▁Good	-10.9356
▁ฉันไม่ต้องการ	-10.9359
让它	-10.9359
สื่อ	-10.9361
进展	-10.9361
อีเมล	-10.9363
穿过	-10.9365
建立	-10.937
是因为你	-10.9371
สูงสุด	-10.9372
โฟ	-10.9372
▁care	-10.9378
不要再	-10.9382
吞	-10.9382
嘉	-10.9382
閉	-10.9382
เชือก	-10.9382
ใจเย็น	-10.9384
▁does	-10.9389
我女儿	-10.939
▁เยี่ยมเลย	-10.9396
每天都	-10.9401
เป็นแฟน	-10.9402
เวียน	-10.9405
การทดสอบ	-10.9406
ปล่าว	-10.941
债	-10.941
署	-10.941
喷	-10.941
▁wait	-10.9411
监控	-10.9411
分析	-10.9411
剩下的	-10.9412
角色	-10.9416
没那么	-10.9416
罗斯	-10.9416
无聊	-10.9417
หน่อยได้มั้ย	-10.9426
การศึกษา	-10.943
ไม่ได้ตั้งใจ	-10.9431
可怜的	-10.9431
运气	-10.9433
line	-10.9434
เป็นเกียรติ	-10.9435
液	-10.9437
เคยเจอ	-10.9437
奧	-10.9439
娅	-10.9439
▁2-3	-10.9439
规则	-10.9439
เป็นผู้หญิง	-10.9439
eck	-10.9445
▁รอก่อน	-10.9447
ความผิดพลาด	-10.9452
สิ่งใด	-10.9453
ฟาร์ม	-10.9456
很漂亮	-10.946
[	-10.9462
ชะตา	-10.9466
京	-10.9467
俱乐部	-10.9467
爹	-10.9467
ทฤษฎี	-10.9467
เถื่อน	-10.9467
▁อ้าว	-10.9467
巡	-10.9467
▁ก็ใช่	-10.9468
การกระทํา	-10.947
light	-10.9471
ถามอะไร	-10.9475
บอกพวกเขา	-10.9478
帽	-10.9482
报警	-10.9484
ุ่น	-10.9488
稍等	-10.949
way	-10.949
รู้จักกัน	-10.9491
盒子	-10.9491
This	-10.9492
就是个	-10.9493
คิดอย่างนั้น	-10.9493
域	-10.9494
監	-10.9495
ร่องรอย	-10.9495
Ro	-10.9496
เอ็น	-10.9496
惊喜	-10.9497
▁run	-10.9498
什么都不	-10.9502
乔治	-10.9502
เงา	-10.9508
ได้มั๊ย	-10.9515
ํ	-10.9518
▁คุณจะรู้ว่า	-10.9518
▁Chappie	-10.9523
尤	-10.9523
购	-10.9523
饮	-10.9523
bsp	-10.9523
窗户	-10.9524
提到	-10.9525
血液	-10.9525
คาดหวัง	-10.9526
可怕的	-10.953
เพิ่มขึ้น	-10.9531
ซักหน่อย	-10.9532
ค่อยๆ	-10.9533
เธฃเธฑเธ	-10.9546
ราชา	-10.9552
仗	-10.9552
歇	-10.9552
污	-10.9552
诸	-10.9552
จาน	-10.9552
兴奋	-10.9552
抢劫	-10.9552
เท็ด	-10.9553
เพื่ออะไร	-10.9553
互相	-10.9556
ต้องการให้คุณ	-10.9557
แตะต้อง	-10.9562
▁Su	-10.9564
动作	-10.9578
證	-10.9579
รีด	-10.958
勤	-10.958
寸	-10.958
驱	-10.958
喝一杯	-10.9583
怎么可能	-10.9586
ประหลาดใจ	-10.959
ป่าว	-10.9594
จ้า	-10.9595
เดีย	-10.9596
เป้า	-10.9601
▁ขอโทษที่	-10.9605
ف	-10.9609
云	-10.9609
團	-10.9609
汇	-10.9609
▁please	-10.9609
孔	-10.9609
ปรุง	-10.9609
听说过	-10.9609
之类的	-10.9609
▁ไอ้บ้า	-10.961
คําสาป	-10.9611
หลังจากที่	-10.9618
会议	-10.9623
▁นายก็รู้	-10.9629
bra	-10.9629
怎	-10.9634
鲜	-10.9634
看不到	-10.9634
วันหนึ่ง	-10.9636
范	-10.9637
辱	-10.9637
艺术	-10.9638
四个	-10.964
นักบิน	-10.9641
是我的错	-10.9641
ขยาย	-10.9642
ตรงๆ	-10.9644
集中	-10.9646
机场	-10.9647
▁ขอเวลา	-10.965
尽快	-10.9661
截	-10.9666
朱	-10.9666
อยากเห็น	-10.9667
สอบสวน	-10.9667
แก๊ง	-10.9667
▁尽管	-10.9668
แพน	-10.9669
無法	-10.9677
做什麼	-10.9687
▁Are	-10.9692
多少钱	-10.9694
สัมภาษณ์	-10.9695
เก้าอี้	-10.9695
▁wrong	-10.9695
侦	-10.9695
贾	-10.9695
旅馆	-10.9696
厨房	-10.9696
เดี่ยว	-10.9702
▁Can	-10.9713
port	-10.9719
听过	-10.972
小组	-10.9723
▁Pr	-10.9724
倫	-10.9724
奔	-10.9724
賣	-10.9724
ไอเดีย	-10.9724
辛苦	-10.9724
客户	-10.9725
▁might	-10.9726
▁เห็นไหม	-10.9726
เชื่อใน	-10.9729
ix	-10.9733
玩具	-10.9734
ต้องใช้เวลา	-10.9735
▁อย่าลืม	-10.9735
หลังคา	-10.9738
ๆๆๆ	-10.974
ทําในสิ่งที่	-10.9748
เดย์	-10.975
ตะโกน	-10.9753
เบิร์ก	-10.9753
兜	-10.9753
耻	-10.9753
瞧瞧	-10.9754
醒醒	-10.9755
婚姻	-10.9755
สีดํา	-10.9757
แค้น	-10.9763
假装	-10.9763
很不错	-10.9768
อุ่น	-10.9777
ปัญญา	-10.9781
ยาเสพติด	-10.9782
滴	-10.9782
節	-10.9782
脆	-10.9782
鹰	-10.9782
Chuck	-10.9782
▁stay	-10.9785
▁Jo	-10.9786
什么样的	-10.9789
上尉	-10.979
36	-10.9793
最后一次	-10.9793
一辆	-10.9794
之外	-10.9795
▁ฉันแค่อยาก	-10.9802
没必要	-10.9805
มาที่นี่เพื่อ	-10.9809
選	-10.9811
กําเนิด	-10.9811
ปรารถนา	-10.9811
ปอนด์	-10.9811
歲	-10.9811
▁แต่มันก็	-10.9812
▁ขออภัย	-10.9813
箱子	-10.9814
是唯一	-10.9819
听听	-10.982
แหก	-10.9824
姐	-10.983
对不对	-10.9833
เป็	-10.9834
มิติ	-10.9835
เรื่องพวกนี้	-10.9839
状	-10.984
茨	-10.984
Please	-10.984
勞	-10.984
ผง	-10.9843
很遗憾	-10.9843
▁ฉันทําไม่ได้	-10.9846
ดําเนิน	-10.9847
▁หือ	-10.9847
แผนการ	-10.985
พัด	-10.9858
เข้าใกล้	-10.9861
ใดๆ	-10.9861
▁another	-10.987
斷	-10.987
land	-10.987
รู้อะไรไหม	-10.9873
▁ผมอยากให้คุณ	-10.9874
โถ	-10.9878
Bill	-10.9879
Mar	-10.9885
请求	-10.9888
▁พระเจ้าช่วย	-10.9896
稳	-10.9897
偿	-10.9899
卡车	-10.99
充满	-10.9901
激动	-10.9906
ลิลลี่	-10.9909
是这样的	-10.9915
คุยด้วย	-10.9922
อลิซ	-10.9923
แอง	-10.9924
肯定会	-10.9924
โทรกลับ	-10.9928
赏	-10.9929
ฉีก	-10.9929
捉	-10.9929
饰	-10.9929
บ้าไปแล้ว	-10.9929
ซวย	-10.9933
ขนาดใหญ่	-10.9935
สารภาพ	-10.9936
ผา	-10.9937
乐意	-10.9947
หัด	-10.9958
Yeah	-10.9959
▁fuck	-10.9961
เธฅเธฑเธ	-10.9971
爱情	-10.9972
好主意	-10.9972
醒来	-10.9976
ยากที่จะ	-10.9977
还有什么	-10.9981
汽	-10.9982
ฮาน	-10.9982
0,000	-10.9985
盗	-10.9985
上校	-10.9986
เบื้อง	-10.9988
Bonnie	-10.9988
积	-10.9988
诗	-10.9988
親愛的	-10.9988
实验室	-10.9989
oh	-10.9994
压力	-10.9995
นีย์	-11
สูท	-11.0003
前进	-11.0014
เธฒเธขเธ	-11.0015
关掉	-11.0016
患	-11.0018
舅	-11.0018
谓	-11.0018
巴黎	-11.0019
某些	-11.002
▁uh	-11.0021
อันดับ	-11.0021
说服	-11.0024
ที่เหมาะสม	-11.0031
75	-11.0037
贷	-11.0047
酸	-11.0047
益	-11.0047
諾	-11.0047
ย้ํา	-11.0047
ปารีส	-11.0048
彻底	-11.0048
感兴趣	-11.0049
งั้นหรือ	-11.005
▁不不不	-11.005
เด็กผู้หญิง	-11.0051
得很好	-11.0051
想要什么	-11.0052
让你们	-11.0054
也知道	-11.0057
บีบ	-11.0059
機會	-11.006
มวย	-11.0065
เวที	-11.0065
床上	-11.0072
ความกลัว	-11.0072
▁要么	-11.0073
แผ่นดิน	-11.0074
ตรวจดู	-11.0076
มันเกิดอะไรขึ้น	-11.0077
坠	-11.0077
宽	-11.0077
汁	-11.0077
克莱尔	-11.0077
骄傲	-11.0077
网络	-11.0077
保護	-11.0079
守护	-11.0081
男友	-11.0081
美國	-11.0086
เครื่องดื่ม	-11.0098
这个地方	-11.0102
เท่ากับ	-11.0104
สตรี	-11.0105
骗子	-11.0105
聚会	-11.0106
เครดิต	-11.0107
刷	-11.0107
扭	-11.0107
郎	-11.0107
恰	-11.0107
เกราะ	-11.0107
ข้างนอกนั่น	-11.0109
จับตาดู	-11.0109
เซ็	-11.0113
冠军	-11.0114
ring	-11.0115
五分钟	-11.0117
เป็นความลับ	-11.0117
มานานแล้ว	-11.0123
ปัก	-11.0132
เป็นหนี้	-11.0135
邦	-11.0137
巧克力	-11.0138
慌	-11.0138
組	-11.0138
輕	-11.0138
ซื่อสัตย์	-11.0138
仔细	-11.0138
还想	-11.0138
宝宝	-11.0138
脖子	-11.0138
感染	-11.0139
สามคน	-11.0142
认真	-11.0148
จํากัด	-11.0148
就像是	-11.0151
เมื่อไร	-11.0151
▁lot	-11.0151
ko	-11.0155
คอยดู	-11.0156
ตามสบาย	-11.0158
兄	-11.0161
min	-11.0163
庆	-11.0167
飯	-11.0168
ถ้วย	-11.0168
崩	-11.0168
	-11.0168
▁อันที่จริง	-11.0168
一辈子	-11.0168
ใกล้ชิด	-11.0168
庆祝	-11.0168
ขเธนเน	-11.0174
สักวัน	-11.0182
理论	-11.0183
Don	-11.0193
淡	-11.0198
疾	-11.0198
黛	-11.0198
เคท	-11.0201
迟到了	-11.0202
ฮุ	-11.0203
甜心	-11.0207
กล่าวหา	-11.021
สักนิด	-11.021
战士	-11.0211
มีพลัง	-11.022
ซัน	-11.0223
肖	-11.0226
ทําบ้าอะไร	-11.0227
兒子	-11.0228
仪	-11.0228
ร็อบ	-11.0228
圆	-11.0228
芙	-11.0228
詹	-11.0228
สโนว์	-11.0228
เมตตา	-11.0228
โจนส์	-11.0229
对我来说	-11.0232
今年	-11.0237
演员	-11.0238
ไม่เลว	-11.0239
ที่สุดในโลก	-11.0241
เธดเน	-11.0242
小时候	-11.0246
เจสัน	-11.0253
小時	-11.0254
ction	-11.0254
想念	-11.0255
เอาชนะ	-11.0259
คริสต์มาส	-11.0259
毀	-11.0259
สาป	-11.0259
ฟิลด์	-11.0261
大楼	-11.0263
▁came	-11.0266
▁อย่าขยับ	-11.0267
女友	-11.0268
手指	-11.0271
บ่น	-11.0272
ไห	-11.0272
กําลังมองหา	-11.028
事故	-11.0282
เราทั้งคู่	-11.0283
จะได้เห็น	-11.0283
▁บ้าจริง	-11.0287
滩	-11.029
袖	-11.029
国际	-11.0291
搜查	-11.0293
ไฟไหม้	-11.0294
一句	-11.0295
▁talking	-11.0298
ระวังตัว	-11.03
ทุกครั้งที่	-11.0305
▁于是	-11.0306
คลอด	-11.031
โกะ	-11.0312
กรุณา	-11.0317
一堆	-11.0317
ดังนั้น	-11.0317
屎	-11.0319
巾	-11.032
選擇	-11.032
สั่น	-11.0321
บุญ	-11.0322
卫星	-11.0326
鼻子	-11.0329
โน้น	-11.0333
神奇	-11.0334
移动	-11.0342
▁bad	-11.0343
ไม่ได้ยิน	-11.0348
遥	-11.0351
ศรัทธา	-11.0351
中情局	-11.0351
▁play	-11.0351
	-11.0351
▁enough	-11.0351
▁บ้าเอ๊ย	-11.0351
สบายใจ	-11.0351
档案	-11.0352
โหด	-11.0355
รู้มั๊ย	-11.0355
变化	-11.0359
34	-11.0361
谈话	-11.0362
ated	-11.0365
ออฟ	-11.0374
ปีที่ผ่านมา	-11.0374
▁wanted	-11.0375
99	-11.0381
仁	-11.0382
焦	-11.0382
膀	-11.0382
霉	-11.0382
領	-11.0382
倾	-11.0382
คิดยังไง	-11.0382
มินวู	-11.0383
打破	-11.0388
时代	-11.0389
วัว	-11.0398
ปฏิ	-11.0413
สัญลักษณ์	-11.0413
เสน่ห์	-11.0413
เหม็น	-11.0413
弧	-11.0413
济	-11.0413
诊	-11.0413
▁understand	-11.0413
หน้ากาก	-11.0413
▁guess	-11.0413
▁mind	-11.0413
เหลือเชื่อ	-11.0416
摧毁	-11.0417
主义	-11.0418
▁doesn	-11.042
▁เอาหล่ะ	-11.0426
กรม	-11.0428
不止	-11.0439
遵	-11.0444
矮	-11.0444
掌握	-11.0444
吸引	-11.0446
这座	-11.0468
孙	-11.0475
歷	-11.0475
看起來	-11.0487
空气	-11.0495
แดด	-11.0497
บัด	-11.0503
บ็อบ	-11.0506
พระเยซู	-11.0506
เทคนิค	-11.0506
役	-11.0506
腐	-11.0506
页	-11.0506
เลี่ยน	-11.0506
厕所	-11.0507
精彩	-11.0507
สัญญากับ	-11.0507
午餐	-11.0507
ชั่วร้าย	-11.0509
▁自从	-11.0511
而言	-11.0522
哪兒	-11.0525
我的名字	-11.0526
ผู้จัดการ	-11.0526
惜	-11.0528
กองกําลัง	-11.0529
วันหยุด	-11.0535
เร็วๆนี้	-11.0536
磨	-11.0537
勾	-11.0538
幫助	-11.0539
所做的	-11.0542
今早	-11.0551
สํานึก	-11.0552
งั้นรึ	-11.0552
是因為	-11.0556
加油	-11.0557
เรื่อย	-11.0558
逃走	-11.0558
เธกเธฒเธ	-11.0563
cause	-11.0564
畫	-11.0569
润	-11.0569
申请	-11.057
อยู	-11.057
มีประโยชน์	-11.0598
被杀	-11.0598
艘	-11.0599
叶	-11.0601
径	-11.0601
披	-11.0601
磁	-11.0601
ศาสตราจารย์	-11.0601
纵	-11.0601
進來	-11.0603
ลึกลับ	-11.0604
内心	-11.0604
หลวงพ่อ	-11.0608
亚当	-11.0608
不容易	-11.0609
共同	-11.0611
来找我	-11.0613
เป็นส่วนหนึ่งของ	-11.0619
行李	-11.062
เบิล	-11.062
รัม	-11.0627
ผู้พัน	-11.0628
际	-11.0628
แชมป์	-11.0632
	-11.0632
哟	-11.0632
柔	-11.0632
粗	-11.0632
齿	-11.0632
ฟ้อง	-11.0632
เพชร	-11.0632
▁Di	-11.0633
จะทําอย่างไร	-11.0634
กดดัน	-11.0634
各种	-11.0636
大部分	-11.0637
บนโลก	-11.0641
桌子	-11.0648
清理	-11.0649
石头	-11.0654
女生	-11.0658
พิพากษา	-11.0664
เกาหลี	-11.0664
亂	-11.0664
吊	-11.0664
涂	-11.0664
獵	-11.0664
缘	-11.0664
阶	-11.0664
ลิสบอน	-11.0664
據	-11.0664
เชื่อมต่อ	-11.0664
ฝันร้าย	-11.067
发展	-11.0671
杀掉	-11.0673
ตลอดชีวิต	-11.0676
之後	-11.0681
年代	-11.0685
两次	-11.0689
พู	-11.0695
爭	-11.0696
กระตุ้น	-11.0696
價	-11.0696
夹	-11.0696
撕	-11.0696
標	-11.0696
琪	-11.0696
舌	-11.0696
鹿	-11.0696
ล้วน	-11.07
公园	-11.07
警局	-11.0702
มีความคิด	-11.0703
เปลี่ยนใจ	-11.0705
วิลล์	-11.0705
เป่า	-11.0707
ทั้งชีวิต	-11.0713
ทับ	-11.0714
屋子	-11.0727
ขนมปัง	-11.0728
慰	-11.0728
晕	-11.0728
ตาราง	-11.0728
世纪	-11.0729
ตอบคําถาม	-11.0731
Because	-11.0731
红色	-11.0733
不然	-11.0745
每一个	-11.0745
艾伦	-11.0755
เพื่อนบ้าน	-11.0755
สลาย	-11.0759
簡	-11.076
ระเบียบ	-11.076
อพยพ	-11.076
棋	-11.076
งดงาม	-11.076
思考	-11.0762
▁Uh	-11.0764
มีคําถาม	-11.0764
▁ให้ตายเถอะ	-11.0766
德国	-11.0766
อย่างรวดเร็ว	-11.0771
讲话	-11.0774
ลดลง	-11.078
克劳	-11.0787
หลีก	-11.0791
杆	-11.0792
渡	-11.0792
ã	-11.0792
เช็ด	-11.0792
嘘	-11.0792
รู้แล้วว่า	-11.0794
盒	-11.0797
▁โอ๊ย	-11.0797
受不了	-11.0806
希望你能	-11.0811
▁fun	-11.0812
การเปลี่ยนแปลง	-11.0819
คุกคาม	-11.0824
▁brother	-11.0824
▁everything	-11.0824
調	-11.0824
วิคเตอร์	-11.0826
大脑	-11.0828
ลิซ่า	-11.0839
แปลง	-11.084
สันติ	-11.084
บางสิ่งบางอย่าง	-11.0841
ฉันต้องการให้คุณ	-11.0841
麦克斯	-11.0841
全球	-11.0848
กันและกัน	-11.0849
ชําระ	-11.0852
厌	-11.0856
倆	-11.0857
เลิศ	-11.0857
▁yeah	-11.0857
弥	-11.0857
揍	-11.0857
▁很高兴见到你	-11.0857
AR	-11.086
很有趣	-11.0862
伟	-11.0888
罩	-11.0889
	-11.0889
剪	-11.0922
堪	-11.0922
姬	-11.0922
棄	-11.0922
冠	-11.0948
挥	-11.0953
媒	-11.0954
碞	-11.0954
艺	-11.0987
儡	-11.0987
設	-11.0987
義	-11.102
悔	-11.1021
泄	-11.1053
碼	-11.1053
胃	-11.1053
舒	-11.1085
俊	-11.1086
宰	-11.1086
幅	-11.1086
麗	-11.1086
	-11.1086
习	-11.1117
裙	-11.1119
栋	-11.1153
獄	-11.1153
娶	-11.1153
導	-11.1186
崔	-11.1186
廊	-11.1186
踏	-11.122
	-11.122
妓	-11.125
讨	-11.1252
培	-11.1253
戲	-11.1253
睁	-11.1253
胞	-11.1253
臉	-11.1253
措	-11.1253
權	-11.1287
宴	-11.1287
挣	-11.1287
释	-11.1295
庭	-11.1308
樓	-11.1321
盲	-11.1321
扁	-11.1321
附	-11.1354
夸	-11.1355
缓	-11.1355
侧	-11.1389
慎	-11.1389
茱	-11.1389
酱	-11.1389
党	-11.1423
委	-11.1423
產	-11.1423
贺	-11.1423
厨	-11.1457
挨	-11.1458
董	-11.1458
壓	-11.1492
顧	-11.1492
	-11.1492
亨	-11.1524
阻	-11.1526
	-11.1562
啰	-11.1562
御	-11.1562
恒	-11.1562
怨	-11.1596
夢	-11.1596
宠	-11.1596
氧	-11.1596
肌	-11.1596
衛	-11.1596
哀	-11.1596
揭	-11.1596
闭	-11.1648
填	-11.1666
艰	-11.1666
哼	-11.1702
缝	-11.1702
钩	-11.1702
佣	-11.1737
谱	-11.1737
	-11.1737
肤	-11.1772
阁	-11.1772
極	-11.1808
牧	-11.1808
練	-11.1808
裸	-11.1808
盯	-11.1821
靈	-11.1844
檢	-11.188
習	-11.188
麥	-11.188
險	-11.1915
描	-11.1915
侍	-11.1916
穷	-11.1916
浮	-11.1916
亏	-11.1952
税	-11.1952
续	-11.1987
僅	-11.1988
喬	-11.1988
罐	-11.1988
踩	-11.1988
則	-11.2024
井	-11.2024
猩	-11.2024
兴	-11.2056
í	-11.2061
乳	-11.2061
券	-11.2061
炼	-11.2061
眔	-11.2061
級	-11.2061
覺	-11.2068
幼	-11.2097
旗	-11.2097
疫	-11.2097
铃	-11.2097
乾	-11.2134
旋	-11.2134
熱	-11.2134
騙	-11.2134
拒	-11.2166
授	-11.2169
ح	-11.2171
錄	-11.2171
衡	-11.2208
赋	-11.2208
猴	-11.2208
	-11.2208
农	-11.2243
統	-11.2245
仿	-11.2245
棍	-11.2245
湿	-11.2245
瞄	-11.2245
赐	-11.2245
遣	-11.2245
測	-11.2283
黎	-11.2318
願	-11.2318
捐	-11.232
萊	-11.232
à	-11.232
贼	-11.232
跪	-11.232
哇	-11.2352
泉	-11.2358
觀	-11.2395
驗	-11.2395
妥	-11.2395
询	-11.2395
迎	-11.2433
厚	-11.2433
挤	-11.2433
汗	-11.2433
递	-11.2433
姑	-11.2471
	-11.2471
逮	-11.2509
凌	-11.2509
龄	-11.2509
柱	-11.2509
	-11.2509
袭	-11.2547
ة	-11.2548
塊	-11.2548
渐	-11.2548
骚	-11.2548
{	-11.2585
逗	-11.2586
Q	-11.2611
敵	-11.2625
笼	-11.2625
辈	-11.2664
傲	-11.2664
華	-11.2664
央	-11.2664
獨	-11.2664
脫	-11.2664
蹲	-11.2664
抛	-11.2702
園	-11.2703
筁	-11.2703
蹤	-11.2703
享	-11.2732
醫	-11.2737
ج	-11.2742
嫁	-11.2751
呃	-11.2778
囊	-11.282
篇	-11.282
聖	-11.282
職	-11.282
辩	-11.282
钮	-11.282
驚	-11.282
沿	-11.286
瘾	-11.286
艦	-11.286
述	-11.2899
寶	-11.2939
劇	-11.2939
搅	-11.2939
潘	-11.2939
炒	-11.2939
罚	-11.2979
紀	-11.2979
紅	-11.2979
卓	-11.2979
械	-11.2979
漠	-11.2979
豚	-11.2979
ㄆ	-11.3019
揮	-11.3019
币	-11.306
忧	-11.306
納	-11.306
聞	-11.306
覆	-11.306
塑	-11.31
燒	-11.31
薪	-11.3141
贏	-11.3141
盟	-11.3181
奴	-11.3223
磅	-11.3223
革	-11.3223
丫	-11.3223
株	-11.3223
拥	-11.3239
俗	-11.3264
犬	-11.3264
丟	-11.3264
滾	-11.3264
癸	-11.3264
讽	-11.3264
殿	-11.3293
缠	-11.3347
腔	-11.3347
毙	-11.3347
傑	-11.3388
庄	-11.3388
拘	-11.3388
辑	-11.343
抚	-11.343
肠	-11.343
脾	-11.343
奋	-11.3472
遊	-11.3472
枚	-11.3472
紫	-11.3472
踪	-11.3498
堅	-11.3514
契	-11.3514
弓	-11.3514
慕	-11.3514
辨	-11.3514
噩	-11.3557
愧	-11.3557
谎	-11.3584
仓	-11.3599
卑	-11.3599
氏	-11.3599
笵	-11.3599
邮	-11.3641
刮	-11.3685
厄	-11.3685
嚴	-11.3685
悬	-11.3685
湾	-11.3685
蹈	-11.3685
預	-11.3685
筹	-11.3685
鲨	-11.3685
	-11.3728
缉	-11.3728
耗	-11.3728
叉	-11.3728
窝	-11.3771
腳	-11.3771
茜	-11.3771
屈	-11.3771
霸	-11.3771
備	-11.3815
熬	-11.3815
狮	-11.3815
狀	-11.3815
捡	-11.3858
畢	-11.3858
疏	-11.3858
寒	-11.3858
養	-11.3858
ฬ	-11.3902
專	-11.3902
岩	-11.3902
贫	-11.3902
ذ	-11.3902
穴	-11.3946
規	-11.3946
储	-11.3946
抹	-11.3946
嚇	-11.3991
虐	-11.3991
ᵽ	-11.4035
穆	-11.4035
粹	-11.4035
册	-11.4035
慧	-11.4035
泪	-11.4035
番	-11.4035
週	-11.4035
绪	-11.4077
ä	-11.408
堵	-11.408
敗	-11.408
饶	-11.408
	-11.408
励	-11.4125
妄	-11.4125
弯	-11.4125
沟	-11.4125
盔	-11.4125
鸦	-11.4125
邀	-11.416
懷	-11.417
扬	-11.417
腰	-11.417
劝	-11.417
ネ	-11.4215
循	-11.4215
祭	-11.4215
謊	-11.4215
尉	-11.4247
嘲	-11.426
扶	-11.426
拨	-11.426
搏	-11.426
舉	-11.426
歐	-11.4306
畏	-11.4306
翼	-11.4306
蝠	-11.4352
鉴	-11.4352
瘦	-11.4352
纠	-11.4352
研	-11.4398
催	-11.4398
扳	-11.4398
滋	-11.4398
魅	-11.4398
q	-11.4399
贱	-11.4406
壳	-11.4444
爪	-11.4444
跨	-11.4444
闷	-11.4444
伞	-11.4491
吼	-11.4491
筒	-11.4491
邪	-11.4537
橄	-11.4537
鬥	-11.4537
	-11.4537
尋	-11.4537
矛	-11.4537
逛	-11.4537
順	-11.4537
谅	-11.4583
臣	-11.4584
奎	-11.4629
寂	-11.4632
炉	-11.4632
熙	-11.4632
衰	-11.4632
诡	-11.4632
逻	-11.4632
遲	-11.4632
崇	-11.4679
悄	-11.4679
臟	-11.4679
辦	-11.4723
档	-11.4725
巢	-11.4727
誤	-11.4727
匿	-11.4774
庫	-11.4774
柴	-11.4774
肺	-11.4774
衫	-11.4774
谜	-11.4774
厂	-11.4819
妖	-11.4823
臨	-11.4823
谨	-11.4823
赎	-11.4823
骂	-11.4823
勝	-11.4871
扩	-11.4871
陈	-11.4871
暂	-11.4911
夥	-11.4919
菌	-11.4919
串	-11.4919
樹	-11.4919
溃	-11.4919
腾	-11.4919
膝	-11.4919
郁	-11.4919
鎖	-11.4919
雕	-11.4919
挽	-11.4968
晶	-11.4968
横	-11.4968
淹	-11.4968
貨	-11.4968
铐	-11.4968
龍	-11.4968
虑	-11.5017
屏	-11.5017
浑	-11.5017
煮	-11.5017
讀	-11.5017
轰	-11.5017
麽	-11.5066
矿	-11.5066
篷	-11.5066
髮	-11.5066
宅	-11.5116
繁	-11.5116
疚	-11.5116
薇	-11.5116
魚	-11.5116
貝	-11.5166
創	-11.5166
頂	-11.5166
饥	-11.5166
旺	-11.5166
♪	-11.5207
識	-11.5215
恼	-11.5216
擁	-11.5216
曹	-11.5216
網	-11.5216
锅	-11.5216
細	-11.5216
孕	-11.5266
ぱ	-11.5266
胶	-11.5266
诈	-11.5266
佢	-11.5266
敦	-11.5316
	-11.5316
侣	-11.5316
扑	-11.5367
適	-11.5367
妨	-11.5367
竭	-11.5367
渴	-11.5418
橡	-11.5418
`	-11.5418
懦	-11.5418
枝	-11.5418
毯	-11.5418
簽	-11.5418
鲸	-11.5418
漂	-11.5469
丰	-11.5469
穹	-11.5469
	-11.5469
况	-11.5519
∮	-11.5521
喘	-11.5521
屍	-11.5521
態	-11.5521
	-11.5521
囚	-11.5572
均	-11.5573
坎	-11.5573
瞬	-11.5573
赤	-11.5573
迦	-11.5573
翅	-11.5625
遺	-11.5625
镖	-11.5625
垂	-11.5625
徐	-11.5625
逝	-11.5625
疗	-11.5676
凉	-11.5677
钉	-11.5677
雾	-11.5677
鹅	-11.5677
瑪	-11.5677
彼	-11.5719
呐	-11.5729
灌	-11.573
姿	-11.573
挪	-11.573
栏	-11.573
详	-11.573
鞭	-11.573
距	-11.5781
府	-11.5783
魯	-11.5783
粒	-11.5783
獸	-11.5836
懒	-11.5836
稀	-11.589
苗	-11.589
茄	-11.589
铺	-11.589
腹	-11.589
輸	-11.5943
眉	-11.5943
贪	-11.5943
東	-11.5995
净	-11.5995
仆	-11.5997
匪	-11.5997
峰	-11.5997
篮	-11.5997
缸	-11.5997
晃	-11.5997
皆	-11.5997
隻	-11.6052
俱	-11.6052
勺	-11.6052
響	-11.6052
琼	-11.61
繫	-11.6106
龟	-11.6106
	-11.6106
雄	-11.616
獲	-11.6161
谬	-11.6161
際	-11.6161
筋	-11.6161
膏	-11.6161
裹	-11.6161
質	-11.6161
祈	-11.6216
屬	-11.6217
絲	-11.6217
酪	-11.6217
	-11.6217
鼻	-11.6256
兆	-11.6272
歧	-11.6272
绩	-11.6272
凑	-11.6272
唇	-11.6328
訊	-11.6328
筆	-11.6328
悠	-11.6384
抖	-11.6384
榮	-11.6384
己	-11.6438
川	-11.6441
匠	-11.6441
捅	-11.6441
莲	-11.6441
製	-11.6441
跌	-11.6441
捣	-11.6441
斐	-11.6441
概	-11.6483
较	-11.6494
乏	-11.6497
牆	-11.6497
纱	-11.6497
輛	-11.6497
匙	-11.6555
沾	-11.6555
雙	-11.6555
渣	-11.6555
碗	-11.6555
楚	-11.6611
拐	-11.6612
摘	-11.6612
添	-11.6612
焰	-11.6612
疤	-11.6612
秨	-11.6612
浓	-11.6612
р	-11.667
騎	-11.667
靴	-11.667
昆	-11.6728
江	-11.6728
翰	-11.6786
責	-11.6786
翁	-11.6786
飘	-11.6786
喽	-11.6786
噶	-11.6786
翠	-11.6786
荐	-11.6786
蔽	-11.6786
钓	-11.6786
倦	-11.6845
聰	-11.6845
薩	-11.6845
劣	-11.6845
圍	-11.6845
鬆	-11.6845
爛	-11.6904
坟	-11.6904
逆	-11.6904
擅	-11.6961
哩	-11.6964
淋	-11.6964
唬	-11.6964
垮	-11.6964
炎	-11.6964
锋	-11.6964
肚	-11.7017
朵	-11.7024
侄	-11.7024
帥	-11.7024
脊	-11.7024
貓	-11.7024
鄙	-11.7024
雀	-11.7024
～	-11.7024
纽	-11.7083
斑	-11.7084
盐	-11.7084
―	-11.7084
嗝	-11.7084
帆	-11.7084
課	-11.7084
促	-11.7145
瀑	-11.7145
肃	-11.7145
饱	-11.7145
申	-11.7204
丸	-11.7206
漆	-11.7206
稿	-11.7206
轴	-11.7206
碑	-11.7206
稲	-11.7206
藤	-11.7206
哨	-11.7267
翴	-11.7267
芝	-11.7267
藉	-11.7267
隱	-11.7267
衬	-11.7267
唉	-11.7329
丛	-11.7329
廢	-11.7329
煎	-11.7329
狙	-11.7329
衷	-11.7329
館	-11.7329
é	-11.7391
妆	-11.7391
庞	-11.7391
紐	-11.7391
宮	-11.7453
拟	-11.7453
療	-11.7453
睹	-11.7453
疲	-11.7453
谊	-11.7453
凝	-11.7516
勁	-11.7516
镑	-11.7516
棺	-11.7516
衝	-11.758
呗	-11.758
坑	-11.758
塌	-11.758
搶	-11.758
歸	-11.758
盤	-11.758
羽	-11.758
輪	-11.758
迅	-11.758
继	-11.7643
募	-11.7643
痷	-11.7643
碟	-11.7643
【	-11.7643
藝	-11.7705
丘	-11.7707
戮	-11.7707
餓	-11.7707
亦	-11.7707
抑	-11.7707
	-11.7772
兼	-11.7772
嘗	-11.7772
嬸	-11.7772
肢	-11.7772
討	-11.7837
琵	-11.7837
忌	-11.7837
歪	-11.7837
畜	-11.7837
擾	-11.7837
淫	-11.7902
襲	-11.7902
】	-11.7902
履	-11.7902
弊	-11.7902
徽	-11.7902
洪	-11.7902
翔	-11.7902
	-11.7902
辜	-11.7965
兮	-11.7968
苍	-11.7968
蘇	-11.7968
爺	-11.7968
苹	-11.7968
郡	-11.8034
叹	-11.8034
捷	-11.8034
酬	-11.8034
俘	-11.8034
庇	-11.8034
锡	-11.8034
ฏ	-11.8084
宇	-11.81
辐	-11.8101
	-11.8101
漢	-11.8101
狐	-11.8101
癬	-11.8101
耽	-11.8101
肝	-11.8101
薯	-11.8101
陶	-11.8101
摧	-11.8159
姨	-11.8165
寞	-11.8168
烹	-11.8168
肿	-11.8168
腥	-11.8168
傅	-11.8168
岗	-11.8168
訓	-11.8168
棵	-11.8236
躁	-11.8236
銀	-11.8236
掛	-11.8236
瞷	-11.8236
	-11.8304
剥	-11.8304
涯	-11.8304
賭	-11.8304
雜	-11.8304
ش	-11.8304
憶	-11.8304
携	-11.8304
朴	-11.8304
準	-11.8372
氛	-11.8372
罕	-11.8372
铅	-11.8372
瘤	-11.8372
赔	-11.8372
況	-11.8439
杖	-11.8441
杠	-11.8441
滅	-11.8441
槟	-11.8441
澡	-11.851
删	-11.851
脂	-11.851
贡	-11.851
枕	-11.851
槽	-11.851
渔	-11.851
仰	-11.8578
惧	-11.858
狡	-11.858
宙	-11.8651
拷	-11.8651
膜	-11.8651
芯	-11.8651
戶	-11.8651
燈	-11.8651
陽	-11.8651
驶	-11.8722
匕	-11.8722
苔	-11.8722
蜡	-11.8722
遮	-11.8722
	-11.8722
映	-11.8793
盆	-11.8793
览	-11.8793
跡	-11.8793
ط	-11.8793
戚	-11.8793
笛	-11.8793
謀	-11.8793
诞	-11.8864
冥	-11.8865
堕	-11.8865
掘	-11.8865
脅	-11.8865
豫	-11.8865
敞	-11.8865
脈	-11.8865
谣	-11.8865
勢	-11.8938
藍	-11.8938
邓	-11.8938
鑽	-11.8938
哄	-11.8938
營	-11.9011
獎	-11.9011
蝴	-11.9011
補	-11.9011
跃	-11.9011
魁	-11.9011
煩	-11.9084
斤	-11.9084
煙	-11.9084
狸	-11.9084
莓	-11.9084
隧	-11.9084
較	-11.9084
孩	-11.9129
嚼	-11.9158
複	-11.9158
е	-11.9158
寿	-11.9158
憎	-11.9158
舔	-11.9158
蒸	-11.9158
唯	-11.9207
叨	-11.9233
咧	-11.9233
悦	-11.9233
洒	-11.9233
鐵	-11.9233
虽	-11.9303
究	-11.9308
哲	-11.9308
異	-11.9308
砰	-11.9308
穩	-11.9308
叮	-11.9308
負	-11.9384
夕	-11.9384
挚	-11.9384
殖	-11.9384
咩	-11.9384
垒	-11.9384
弘	-11.9384
辉	-11.946
優	-11.946
冇	-11.946
廳	-11.946
柄	-11.946
棕	-11.946
浆	-11.946
溫	-11.946
煤	-11.946
環	-11.946
赴	-11.946
項	-11.946
痴	-11.9535
	-11.9537
崽	-11.9537
巷	-11.9537
抄	-11.9537
浅	-11.9537
粘	-11.9537
袜	-11.9537
锐	-11.9537
	-11.9537
侮	-11.9537
執	-11.9537
擺	-11.9537
痒	-11.9615
詞	-11.9615
驴	-11.9615
摊	-11.9615
晒	-11.9615
沮	-11.9615
烫	-11.9615
輩	-11.9615
偉	-11.9693
	-11.9693
橱	-11.9693
浩	-11.9693
眨	-11.9693
إ	-11.9693
削	-11.9693
啟	-11.9693
绅	-11.9693
閃	-11.9693
駕	-11.9693
鳥	-11.9693
骸	-11.9771
黃	-11.9771
ǐ	-11.9771
ㄇ	-11.9771
劍	-11.9771
眾	-11.9771
	-11.9771
خ	-11.9771
膽	-11.9771
卸	-11.9851
圓	-11.9851
戀	-11.9851
畅	-11.9851
蝶	-11.9851
証	-11.9851
炫	-11.9851
刊	-11.9931
協	-11.9931
嗑	-11.9931
娱	-11.9931
孟	-11.9931
紋	-11.9931
吾	-11.9931
驻	-11.9931
豬	-11.9931
梁	-12.0011
泣	-12.0011
腕	-12.0011
膛	-12.0011
饵	-12.0011
择	-12.0092
廣	-12.0093
呈	-12.0093
崖	-12.0093
腺	-12.0093
	-12.0093
刘	-12.0175
宏	-12.0175
ṃ	-12.0175
┮	-12.0175
猾	-12.0175
菇	-12.0175
萧	-12.0175
贤	-12.0175
鬧	-12.0175
盧	-12.0175
辅	-12.0175
鏡	-12.0175
县	-12.0257
貴	-12.0257
+	-12.0257
淘	-12.0257
烛	-12.0257
鸭	-12.0257
祷	-12.0341
届	-12.0341
殘	-12.0341
鑰	-12.0341
棘	-12.0341
熄	-12.0341
绞	-12.0341
赣	-12.0341
Ω	-12.0341
垫	-12.0341
怜	-12.0419
歉	-12.0422
悼	-12.0425
酋	-12.0425
	-12.0425
	-12.0425
勉	-12.0425
舟	-12.0425
蛤	-12.0425
娃	-12.0509
冈	-12.0509
喻	-12.0509
弦	-12.0509
椒	-12.0509
蓄	-12.0509
み	-12.0509
卜	-12.0509
賺	-12.0509
雞	-12.0509
窥	-12.0509
誉	-12.0595
癫	-12.0595
伽	-12.0595
撬	-12.0595
赠	-12.0595
刹	-12.0595
寡	-12.0595
贿	-12.0595
逞	-12.0595
阔	-12.0595
惕	-12.0595
	-12.0595
	-12.0595
ฃ	-12.0636
邁	-12.0681
叭	-12.0681
坡	-12.0681
掏	-12.0681
祥	-12.0681
铲	-12.0681
阅	-12.0681
	-12.0681
噪	-12.0681
慘	-12.0681
損	-12.0681
誠	-12.0768
玄	-12.0768
盼	-12.0768
勋	-12.0856
島	-12.0856
掠	-12.0856
袍	-12.0856
茉	-12.0856
諒	-12.0856
哋	-12.0856
函	-12.0944
褲	-12.0944
娇	-12.0944
悟	-12.0944
粪	-12.0944
莽	-12.0944
觸	-12.0944
顽	-12.0944
掰	-12.0944
層	-12.1034
泊	-12.1034
翘	-12.1034
蚁	-12.1034
焊	-12.1034
逢	-12.1034
擎	-12.1123
译	-12.1123
欣	-12.1123
籍	-12.1124
颠	-12.1124
咳	-12.1124
戳	-12.1124
旨	-12.1124
蓋	-12.1124
謂	-12.1124
邸	-12.1124
陰	-12.1124
诀	-12.1124
攝	-12.1215
斧	-12.1215
暑	-12.1215
桩	-12.1215
棉	-12.1215
祇	-12.1215
舊	-12.1215
訪	-12.1215
酗	-12.1215
針	-12.1215
歹	-12.1215
键	-12.1304
卦	-12.1306
厲	-12.1306
喉	-12.1306
沫	-12.1306
熏	-12.1306
澳	-12.1306
	-12.1306
栗	-12.1399
婶	-12.1399
屌	-12.1399
潔	-12.1399
編	-12.1399
肆	-12.1399
颈	-12.1399
挫	-12.1399
驼	-12.1399
宜	-12.1491
恢	-12.1492
憾	-12.1492
ǎ	-12.1492
姊	-12.1492
稽	-12.1492
呕	-12.1492
钞	-12.1492
允	-12.1586
惯	-12.1587
續	-12.1587
孽	-12.1587
宵	-12.1587
帳	-12.1587
昧	-12.1587
縫	-12.1587
虾	-12.1587
汪	-12.1587
菊	-12.1587
顆	-12.1587
	-12.1587
矩	-12.1681
焚	-12.1682
绊	-12.1682
蠱	-12.1682
奪	-12.1682
憐	-12.1682
昔	-12.1682
肾	-12.1682
ฅ	-12.1707
甚	-12.1777
斥	-12.1778
暫	-12.1778
溺	-12.1778
豹	-12.1778
锯	-12.1778
鮮	-12.1778
剖	-12.1778
び	-12.1778
婪	-12.1875
礛	-12.1875
厢	-12.1875
吶	-12.1875
愁	-12.1875
芒	-12.1875
茫	-12.1875
诶	-12.1875
–	-12.1875
须	-12.1973
匆	-12.1973
碧	-12.1973
鳄	-12.1973
■	-12.1973
坤	-12.1973
彭	-12.1973
框	-12.1973
窍	-12.1973
耿	-12.1973
螺	-12.1973
銷	-12.1973
嚷	-12.2072
曝	-12.2072
咁	-12.2072
稚	-12.2072
郊	-12.2172
伎	-12.2172
躯	-12.2172
農	-12.2172
铜	-12.2172
霜	-12.2172
	-12.2172
勿	-12.2172
嗜	-12.2172
	-12.2172
眖	-12.2172
鐘	-12.2259
廉	-12.2272
咖	-12.2273
狦	-12.2273
喇	-12.2273
棚	-12.2273
捏	-12.2273
織	-12.2273
裔	-12.2273
趾	-12.2273
陋	-12.2273
聘	-12.2375
坪	-12.2375
迁	-12.2375
闸	-12.2375
靶	-12.2375
栽	-12.2375
檔	-12.2478
灿	-12.2478
狩	-12.2478
锤	-12.2478
陣	-12.2478
	-12.2478
匣	-12.2478
织	-12.2582
逍	-12.2583
伐	-12.2583
唷	-12.2583
姜	-12.2583
峡	-12.2583
橘	-12.2583
橋	-12.2583
犀	-12.2583
醋	-12.2583
麵	-12.2583
題	-12.2687
浦	-12.2688
咨	-12.2688
坞	-12.2688
恤	-12.2688
慶	-12.2688
掃	-12.2688
賓	-12.2688
贊	-12.2688
餅	-12.2688
黏	-12.2688
贯	-12.2688
陌	-12.2794
緒	-12.2794
臀	-12.2794
ฌ	-12.2794
儘	-12.2794
幺	-12.2794
柑	-12.2794
財	-12.2794
赃	-12.2794
ص	-12.2902
慨	-12.2902
沦	-12.2902
纷	-12.2902
郝	-12.2902
拋	-12.2902
朽	-12.2902
鸽	-12.2902
	-12.2902
	-12.2902
擔	-12.3006
壯	-12.301
غ	-12.301
蛙	-12.301
駛	-12.301
т	-12.301
懼	-12.301
甸	-12.301
禦	-12.301
ウ	-12.301
〕	-12.301
癌	-12.312
ú	-12.312
獻	-12.312
粮	-12.312
侯	-12.312
廷	-12.312
綠	-12.312
譯	-12.312
鸣	-12.312
嘱	-12.312
紈	-12.312
飙	-12.312
〝	-12.3231
碳	-12.3231
〞	-12.3231
坊	-12.3231
婦	-12.3231
檬	-12.3231
涨	-12.3231
紙	-12.3231
綁	-12.3231
艳	-12.3231
凤	-12.3231
斜	-12.3231
梳	-12.3231
橙	-12.3231
	-12.3231
	-12.3231
剃	-12.3344
噬	-12.3344
寧	-12.3344
滥	-12.3344
瓣	-12.3344
癡	-12.3344
絡	-12.3344
绘	-12.3344
缴	-12.3344
聋	-12.3344
舵	-12.3344
骆	-12.3344
咐	-12.3344
奮	-12.3344
叠	-12.3457
違	-12.3457
颁	-12.3457
∼	-12.3457
伺	-12.3457
咽	-12.3457
樱	-12.3457
涌	-12.3457
础	-12.3457
茲	-12.3457
薛	-12.3457
虛	-12.3457
訂	-12.3457
颤	-12.3457
ฒ	-12.357
颜	-12.3571
儀	-12.3572
審	-12.3572
採	-12.3572
浸	-12.3572
肋	-12.3572
悯	-12.3572
捞	-12.3572
秃	-12.3572
芮	-12.3572
賤	-12.3572
柳	-12.3572
陀	-12.3572
拌	-12.3689
搁	-12.3689
榴	-12.3689
淨	-12.3689
泛	-12.3689
評	-12.3689
锻	-12.3689
杉	-12.3806
锦	-12.3806
億	-12.3806
蔬	-12.3806
赦	-12.3806
陸	-12.3806
乞	-12.3806
佈	-12.3806
哮	-12.3806
曦	-12.3806
榜	-12.3806
沼	-12.3806
咻	-12.3925
喚	-12.3925
掐	-12.3925
禱	-12.3925
餘	-12.3925
赂	-12.3925
載	-12.3925
叔	-12.4031
址	-12.404
祟	-12.4046
ノ	-12.4046
ㄠ	-12.4046
卒	-12.4046
奢	-12.4046
慣	-12.4046
湯	-12.4046
筝	-12.4046
賞	-12.4046
軟	-12.4046
飾	-12.4046
冤	-12.4046
僵	-12.4167
屑	-12.4168
壶	-12.4168
嫩	-12.4168
彪	-12.4168
徹	-12.4168
獺	-12.4168
碌	-12.4168
绒	-12.4168
貼	-12.4168
郵	-12.4168
減	-12.4168
競	-12.4168
蔼	-12.4168
抉	-12.4291
竖	-12.4291
芥	-12.4291
噁	-12.4291
潛	-12.4291
谐	-12.4291
馅	-12.4291
廚	-12.4291
津	-12.4291
谭	-12.4416
㗎	-12.4416
妍	-12.4416
柠	-12.4416
逸	-12.4416
驳	-12.4416
糕	-12.4541
ぐ	-12.4541
愤	-12.4543
蹦	-12.4543
儒	-12.4543
刃	-12.4543
劑	-12.4543
庸	-12.4543
悍	-12.4543
撐	-12.4543
涅	-12.4543
皂	-12.4543
芳	-12.4543
診	-12.4543
辖	-12.4543
侏	-12.4543
砖	-12.4543
醇	-12.4543
	-12.4543
晴	-12.4671
煞	-12.4671
ز	-12.4671
亥	-12.4671
掷	-12.4671
杨	-12.4671
癖	-12.4671
窖	-12.4671
腊	-12.48
繼	-12.4801
呦	-12.4801
朮	-12.4801
硫	-12.4801
芽	-12.4801
鍵	-12.4801
髓	-12.4801
玡	-12.4801
蝇	-12.4801
ゴ	-12.4801
绵	-12.4932
佔	-12.4932
吩	-12.4932
哑	-12.4932
渊	-12.4932
瘟	-12.4932
純	-12.4932
绷	-12.4932
羔	-12.4932
蔓	-12.4932
	-12.4932
倉	-12.4932
嗅	-12.4932
竒	-12.4932
闺	-12.4932
愚	-12.5065
劃	-12.5065
û	-12.5066
い	-12.5066
も	-12.5066
憤	-12.5066
椰	-12.5066
浇	-12.5066
炖	-12.5066
煌	-12.5066
稻	-12.5066
腸	-12.5066
ï	-12.5066
ฺ	-12.5066
捆	-12.5066
撇	-12.5066
窟	-12.5066
罰	-12.5066
虏	-12.5066
掺	-12.5201
	-12.5201
ô	-12.5201
劉	-12.5201
宪	-12.5201
幢	-12.5201
禽	-12.5201
蟹	-12.5201
裘	-12.5201
豁	-12.5201
恙	-12.5201
憑	-12.5201
蕉	-12.5201
誕	-12.5201
乃	-12.5338
	-12.5338
噴	-12.5338
扒	-12.5338
拽	-12.5338
捍	-12.5338
铭	-12.5338
ō	-12.5338
帘	-12.5338
焉	-12.5338
瞪	-12.5338
葱	-12.5338
驯	-12.5338
┬	-12.5477
枯	-12.5477
茸	-12.5477
ث	-12.5477
乜	-12.5477
竹	-12.5477
肪	-12.5477
虔	-12.5477
谦	-12.5477
鄉	-12.5477
褐	-12.5477
稰	-12.5477
喪	-12.5618
熔	-12.5618
聆	-12.5618
轿	-12.5618
斩	-12.5618
综	-12.5618
	-12.5618
渺	-12.5618
	-12.5618
釋	-12.5648
	-12.576
牠	-12.576
猶	-12.576
Θ	-12.576
剔	-12.576
卵	-12.576
吨	-12.576
狥	-12.576
積	-12.576
窒	-12.576
額	-12.576
岔	-12.576
—	-12.5769
厉	-12.5904
歡	-12.5905
尹	-12.5905
贸	-12.5905
閒	-12.5905
疭	-12.5905
辰	-12.5905
颇	-12.5905
绰	-12.5905
笷	-12.5905
瘫	-12.6052
範	-12.6052
兇	-12.6052
兑	-12.6052
垢	-12.6052
構	-12.6052
蜥	-12.6052
頻	-12.6052
	-12.6052
俯	-12.6052
恳	-12.6052
粄	-12.6052
努	-12.6199
災	-12.6202
狭	-12.6202
鋼	-12.6202
俠	-12.6202
噓	-12.6202
弑	-12.6202
缚	-12.6202
钝	-12.6202
骤	-12.6202
髒	-12.6202
齊	-12.6202
ρ	-12.6202
竊	-12.6353
靓	-12.6353
擒	-12.6353
沖	-12.6353
溪	-12.6353
鱿	-12.6353
	-12.6353
凰	-12.6353
嗷	-12.6353
搖	-12.6353
牽	-12.6353
艹	-12.6353
蘿	-12.6353
渗	-12.6353
儲	-12.6507
猿	-12.6507
飲	-12.6507
	-12.6507
叙	-12.6507
蓬	-12.6507
	-12.6507
冕	-12.6507
燕	-12.6507
猧	-12.6507
韋	-12.6507
俺	-12.6663
咎	-12.6663
劈	-12.6663
孝	-12.6663
淑	-12.6663
疹	-12.6663
辙	-12.6663
	-12.6663
罷	-12.6663
タ	-12.6663
砆	-12.6663
椎	-12.6822
魏	-12.6822
@	-12.6822
ぇ	-12.6822
唠	-12.6822
羡	-12.6822
胀	-12.6822
讼	-12.6822
辭	-12.6822
驕	-12.6822
魄	-12.6822
	-12.6822
ض	-12.6822
ゑ	-12.6822
夾	-12.6822
捧	-12.6822
栓	-12.6822
盽	-12.6822
礙	-12.6822
舷	-12.6822
莞	-12.6822
藩	-12.6822
蟲	-12.6822
郑	-12.6822
ˉ	-12.6822
锈	-12.6822
朋	-12.6983
そ	-12.6983
丙	-12.6983
悚	-12.6983
梭	-12.6983
缅	-12.6983
賬	-12.6983
遜	-12.6983
隸	-12.6983
凿	-12.6983
廁	-12.6983
笆	-12.6983
缪	-12.6983
腻	-12.6983
膚	-12.6983
	-12.6983
	-12.6983
ء	-12.6983
寇	-12.6983
弼	-12.6983
泼	-12.6983
階	-12.7147
擋	-12.7147
攀	-12.7147
氮	-12.7147
瞳	-12.7147
秈	-12.7147
苛	-12.7147
蚀	-12.7147
韓	-12.7147
顏	-12.7147
喲	-12.7147
晋	-12.7147
汰	-12.7147
宋	-12.7314
瑕	-12.7314
繞	-12.7314
阀	-12.7314
馨	-12.7314
勘	-12.7314
咕	-12.7314
嗒	-12.7314
憋	-12.7314
贞	-12.7314
崭	-12.7314
盿	-12.7483
睾	-12.7483
篡	-12.7483
酵	-12.7483
剁	-12.7483
吴	-12.7483
囉	-12.7483
墟	-12.7483
烘	-12.7483
繷	-12.7483
腫	-12.7483
螂	-12.7483
蹭	-12.7483
躬	-12.7483
鏈	-12.7483
懲	-12.7483
炳	-12.7483
猭	-12.7483
	-12.7483
	-12.7483
坛	-12.7483
┰	-12.7656
殴	-12.7656
葉	-12.7656
闖	-12.7656
陨	-12.7656
	-12.7656
đ	-12.7656
債	-12.7656
岂	-12.7656
挠	-12.7656
縛	-12.7656
缇	-12.7656
菠	-12.7656
践	-12.7656
岿	-12.7656
瓳	-12.7656
簧	-12.7656
訴	-12.7831
邻	-12.7831
妒	-12.7831
媳	-12.7831
跤	-12.7831
側	-12.7831
僻	-12.7831
禍	-12.7831
虹	-12.7831
詩	-12.7831
驰	-12.7831
沸	-12.7831
烷	-12.7831
嚎	-12.7831
啡	-12.801
觅	-12.801
貢	-12.801
驅	-12.801
鼎	-12.801
瞞	-12.801
臺	-12.801
τ	-12.801
よ	-12.801
嗓	-12.801
殭	-12.801
泵	-12.801
睜	-12.801
緣	-12.801
纤	-12.801
蟋	-12.801
迭	-12.801
骰	-12.801
	-12.801
喋	-12.801
拭	-12.801
禗	-12.801
亭	-12.8192
墅	-12.8192
昭	-12.8192
誘	-12.8192
آ	-12.8192
哔	-12.8192
拓	-12.8192
梨	-12.8192
瀚	-12.8192
砛	-12.8192
虱	-12.8192
讚	-12.8192
陵	-12.8192
	-12.8192
胰	-12.8192
踹	-12.8192
瞭	-12.8303
婴	-12.8375
悉	-12.8377
寺	-12.8377
漿	-12.8377
痊	-12.8377
礚	-12.8377
衍	-12.8377
赵	-12.8377
	-12.8377
ア	-12.8377
匯	-12.8377
夭	-12.8377
孫	-12.8377
懈	-12.8377
揪	-12.8377
甫	-12.8377
缆	-12.8377
遂	-12.8377
铸	-12.8377
拇	-12.8377
洱	-12.8377
忆	-12.8561
痪	-12.8566
簿	-12.8566
	-12.8566
‧	-12.8566
ヴ	-12.8566
償	-12.8566
咸	-12.8566
嚣	-12.8566
彎	-12.8566
掙	-12.8566
暈	-12.8566
氢	-12.8566
皑	-12.8566
蒜	-12.8566
蓉	-12.8566
踝	-12.8566
颅	-12.8566
鮑	-12.8566
侈	-12.8566
匡	-12.8566
尬	-12.8566
敷	-12.8566
淮	-12.8566
緩	-12.8566
	-12.8566
嘀	-12.8566
氨	-12.8566
愉	-12.8751
乓	-12.8758
壤	-12.8758
傀	-12.8758
咦	-12.8758
挟	-12.8758
滨	-12.8758
睦	-12.8758
秆	-12.8758
繩	-12.8758
衔	-12.8758
酿	-12.8758
	-12.8758
坨	-12.8758
	-12.8758
闽	-12.8954
ẃ	-12.8954
ㄈ	-12.8954
厘	-12.8954
嬉	-12.8954
搂	-12.8954
浣	-12.8954
甥	-12.8954
癘	-12.8954
購	-12.8954
蹄	-12.8954
齒	-12.8954
叽	-12.8954
壹	-12.8954
擠	-12.8954
榨	-12.8954
烊	-12.8954
煽	-12.8954
眷	-12.8954
蟀	-12.8954
扛	-12.9154
琛	-12.9154
痫	-12.9154
纏	-12.9154
蕩	-12.9154
鄰	-12.9154
溅	-12.9154
烙	-12.9154
牡	-12.9154
瑜	-12.9154
礩	-12.9154
穌	-12.9154
苟	-12.9154
茭	-12.9154
谴	-12.9154
賀	-12.9154
釣	-12.9154
	-12.9154
	-12.9154
ś	-12.9154
ㄢ	-12.9154
嗦	-12.9154
萎	-12.9154
昨	-12.933
乒	-12.9358
姍	-12.9358
岭	-12.9358
札	-12.9358
縮	-12.9358
茅	-12.9358
蝦	-12.9358
ñ	-12.9358
嬰	-12.9358
掀	-12.9358
溶	-12.9358
炭	-12.9358
盎	-12.9358
硕	-12.9358
誇	-12.9358
谕	-12.9358
	-12.9358
傍	-12.9358
僚	-12.9358
呛	-12.9358
咗	-12.9358
嘎	-12.9358
旱	-12.9358
獅	-12.9358
绣	-12.9358
舧	-12.9358
	-12.9358
雖	-12.9566
徑	-12.9566
ち	-12.9566
溢	-12.9566
澄	-12.9566
穝	-12.9566
筛	-12.9566
绯	-12.9566
葵	-12.9566
〉	-12.9566
』	-12.9566
唧	-12.9566
恥	-12.9566
灘	-12.9566
畔	-12.9566
賴	-12.9566
帖	-12.9566
殃	-12.9566
姻	-12.9765
寐	-12.9779
呜	-12.9779
盈	-12.9779
耕	-12.9779
詭	-12.9779
侶	-12.9779
啃	-12.9779
坝	-12.9779
墜	-12.9779
庙	-12.9779
悶	-12.9779
拚	-12.9779
渠	-12.9779
盏	-12.9779
瞶	-12.9779
矢	-12.9779
諸	-12.9779
遞	-12.9779
颂	-12.9779
だ	-12.9779
夷	-12.9779
媛	-12.9779
腎	-12.9779
析	-12.9989
拾	-12.9995
厭	-12.9996
	-12.9996
仲	-12.9996
傘	-12.9996
吱	-12.9996
孬	-12.9996
帜	-12.9996
纬	-12.9996
遙	-12.9996
	-12.9996
娩	-12.9997
彌	-12.9997
氯	-12.9997
洩	-12.9997
渎	-12.9997
烏	-12.9997
蕊	-12.9997
豌	-12.9997
锚	-12.9997
靡	-12.9997
韵	-12.9997
髦	-12.9997
溯	-12.9997
潰	-12.9997
遛	-12.9997
	-12.9997
『	-12.9997
硝	-12.9997
	-12.9997
腞	-12.9997
殊	-13.0214
佑	-13.0217
吁	-13.0219
彗	-13.0219
仑	-13.0219
吋	-13.0219
塘	-13.0219
扂	-13.0219
籌	-13.0219
	-13.0219
吟	-13.0219
焕	-13.0219
玲	-13.0219
窜	-13.0219
胺	-13.0219
蜴	-13.0219
螟	-13.0219
贬	-13.0219
軌	-13.0219
鬱	-13.0219
訝	-13.0219
貸	-13.0219
	-13.0219
玻	-13.0219
厕	-13.0441
丈	-13.0444
濕	-13.0446
乙	-13.0446
蚤	-13.0446
轟	-13.0446
	-13.0446
崎	-13.0446
徵	-13.0446
愣	-13.0446
捎	-13.0446
爐	-13.0446
皱	-13.0446
碾	-13.0446
糾	-13.0446
肛	-13.0446
菈	-13.0446
蛾	-13.0446
灼	-13.0446
穗	-13.0446
艱	-13.0446
梗	-13.0446
玂	-13.0446
羆	-13.0446
獶	-13.0446
蔑	-13.0679
譽	-13.0679
媚	-13.0679
廠	-13.0679
殡	-13.0679
壽	-13.0679
惫	-13.0679
慑	-13.0679
拱	-13.0679
捲	-13.0679
琐	-13.0679
萌	-13.0679
蟑	-13.0679
诫	-13.0679
	-13.0679
	-13.0679
嫉	-13.0917
梵	-13.0917
盜	-13.0917
硄	-13.0917
誌	-13.0917
鹦	-13.0917
‵	-13.0917
徊	-13.0917
栅	-13.0917
滞	-13.0917
濟	-13.0917
筿	-13.0917
蚊	-13.0917
锥	-13.0917
Ч	-13.0917
ئ	-13.0917
亵	-13.0917
屿	-13.0917
撲	-13.0917
橫	-13.0917
鈴	-13.0917
ó	-13.0917
咆	-13.0917
擴	-13.0917
蚂	-13.0917
	-13.0917
	-13.0917
络	-13.116
^	-13.1161
勸	-13.1161
嘟	-13.1161
尷	-13.1161
徘	-13.1161
眯	-13.1161
窄	-13.1161
縱	-13.1161
蠻	-13.1161
裕	-13.1161
咚	-13.1161
扉	-13.1161
拙	-13.1161
沐	-13.1161
涕	-13.1161
詳	-13.1161
賦	-13.1161
跷	-13.1161
蹩	-13.1161
	-13.1161
	-13.1161
荧	-13.1161
ン	-13.1161
偽	-13.1411
棟	-13.1411
礁	-13.1411
醜	-13.1411
钦	-13.1411
齡	-13.1411
喀	-13.1411
寬	-13.1411
扼	-13.1411
掂	-13.1411
撼	-13.1411
曉	-13.1411
疵	-13.1411
瘸	-13.1411
砂	-13.1411
磕	-13.1411
賈	-13.1411
′	-13.1411
併	-13.1411
撥	-13.1411
琦	-13.1411
綸	-13.1411
緝	-13.1411
钳	-13.1411
	-13.1411
钥	-13.1667
疆	-13.1667
	-13.1667
ế	-13.1667
漸	-13.1667
癮	-13.1667
衅	-13.1667
豐	-13.1667
鸮	-13.1667
	-13.1667
嘞	-13.1667
惶	-13.1667
拴	-13.1667
秽	-13.1667
窩	-13.1667
籠	-13.1667
粥	-13.1667
糙	-13.1667
虧	-13.1667
辯	-13.1667
隙	-13.1667
饕	-13.1667
	-13.1667
	-13.1667
倔	-13.1667
餮	-13.1667
	-13.1667
さ	-13.193
鋒	-13.193
啼	-13.193
锣	-13.193
镯	-13.193
ş	-13.193
ひ	-13.193
堤	-13.193
妃	-13.193
桨	-13.193
淆	-13.193
滤	-13.193
烁	-13.193
燭	-13.193
琥	-13.193
窮	-13.193
緋	-13.193
肈	-13.193
膨	-13.193
賊	-13.193
贖	-13.193
韧	-13.193
┅	-13.193
俾	-13.193
傾	-13.193
勵	-13.193
撮	-13.193
燥	-13.193
磺	-13.193
罵	-13.193
肘	-13.193
衢	-13.193
	-13.193
	-13.193
	-13.193
惩	-13.22
痘	-13.22
┪	-13.22
玷	-13.22
唾	-13.22
殉	-13.22
煉	-13.22
琢	-13.22
睫	-13.22
褪	-13.22
騷	-13.22
	-13.22
	-13.22
╃	-13.22
亩	-13.22
憂	-13.22
憲	-13.22
撂	-13.22
枉	-13.22
痹	-13.22
臥	-13.22
誒	-13.22
譜	-13.22
貂	-13.22
跋	-13.22
鞠	-13.22
骇	-13.22
	-13.22
	-13.22
厩	-13.22
峻	-13.22
揣	-13.22
蜻	-13.22
慮	-13.2478
	-13.2478
ね	-13.2478
ゲ	-13.2478
杏	-13.2478
凳	-13.2478
凹	-13.2478
娣	-13.2478
慾	-13.2478
柚	-13.2478
瓷	-13.2478
茎	-13.2478
啸	-13.2478
拧	-13.2478
朔	-13.2478
碉	-13.2478
翡	-13.2478
聿	-13.2478
蜓	-13.2478
螃	-13.2478
蹊	-13.2478
镶	-13.2478
Ν	-13.2478
ッ	-13.2478
攪	-13.2478
樁	-13.2478
滔	-13.2478
腌	-13.2478
酚	-13.2478
淌	-13.2764
狟	-13.2764
哺	-13.2764
畸	-13.2764
莊	-13.2764
蜀	-13.2764
謹	-13.2764
醬	-13.2764
醺	-13.2764
ㄏ	-13.2764
厮	-13.2764
墳	-13.2764
楣	-13.2764
町	-13.2764
羹	-13.2764
臆	-13.2764
賸	-13.2764
霧	-13.2764
懊	-13.2764
攔	-13.2764
睇	-13.2764
矫	-13.2764
羯	-13.2764
蠟	-13.2764
痙	-13.2764
耙	-13.2764
販	-13.2764
筑	-13.3057
荼	-13.3058
璸	-13.3058
譬	-13.3058
懸	-13.3058
桂	-13.3058
桿	-13.3058
辫	-13.3058
ī	-13.3058
セ	-13.3058
嫂	-13.3058
攒	-13.3058
膠	-13.3058
萤	-13.3058
蛛	-13.3058
頁	-13.3058
咏	-13.3058
垛	-13.3058
惟	-13.3058
惺	-13.3058
拢	-13.3058
櫃	-13.3058
氪	-13.3058
遏	-13.3058
鼬	-13.3058
惦	-13.3058
曙	-13.3058
绽	-13.3058
艙	-13.3058
甡	-13.3058
	-13.3058
渍	-13.3361
茧	-13.3361
ぶ	-13.3361
伶	-13.3361
偵	-13.3361
冊	-13.3361
岌	-13.3361
晾	-13.3361
檐	-13.3361
涡	-13.3361
炬	-13.3361
烯	-13.3361
肇	-13.3361
茬	-13.3361
颊	-13.3361
騰	-13.3361
壕	-13.3361
婿	-13.3361
孵	-13.3361
揉	-13.3361
撫	-13.3361
毋	-13.3361
痞	-13.3361
礦	-13.3361
鑒	-13.3361
鷹	-13.3361
	-13.3361
	-13.3361
庐	-13.3361
酮	-13.3361
呎	-13.3674
姚	-13.3674
崛	-13.3674
戟	-13.3674
寨	-13.3674
寵	-13.3674
怯	-13.3674
旷	-13.3674
潇	-13.3674
濒	-13.3674
狝	-13.3674
甭	-13.3674
稅	-13.3674
踞	-13.3674
軸	-13.3674
醚	-13.3674
驹	-13.3674
喳	-13.3674
嘶	-13.3674
塗	-13.3674
岳	-13.3674
揚	-13.3674
殼	-13.3674
汝	-13.3674
瑛	-13.3674
睿	-13.3674
築	-13.3674
艮	-13.3674
蒼	-13.3674
蝎	-13.3674
鄭	-13.3674
	-13.3674
僧	-13.3674
呱	-13.3674
哉	-13.3674
阉	-13.3674
	-13.3674
犸	-13.3674
貧	-13.3674
	-13.3674
嘻	-13.3674
胁	-13.3995
謠	-13.3996
ƀ	-13.3996
噎	-13.3996
淚	-13.3996
酥	-13.3996
凛	-13.3996
寝	-13.3996
彷	-13.3996
悴	-13.3996
憔	-13.3996
昵	-13.3996
昼	-13.3996
洽	-13.3996
浏	-13.3996
澤	-13.3996
眩	-13.3996
絞	-13.3996
荫	-13.3996
闵	-13.3996
骼	-13.3996
	-13.3996
ゎ	-13.3996
傭	-13.3996
剝	-13.3996
唆	-13.3996
噗	-13.3996
崗	-13.3996
斋	-13.3996
欄	-13.3996
溝	-13.3996
賠	-13.3996
餵	-13.3996
饒	-13.3996
馈	-13.3996
	-13.3996
倖	-13.3996
臔	-13.3996
谤	-13.3996
	-13.3996
吭	-13.3996
寓	-13.4327
盢	-13.4329
ㄤ	-13.4329
盹	-13.4329
絋	-13.4329
迄	-13.4329
塵	-13.4329
涵	-13.4329
輯	-13.4329
錨	-13.4329
铀	-13.4329
霹	-13.4329
鹽	-13.4329
ヘ	-13.4329
丐	-13.4329
俏	-13.4329
唄	-13.4329
嚏	-13.4329
坍	-13.4329
拣	-13.4329
揽	-13.4329
涼	-13.4329
湊	-13.4329
糗	-13.4329
閱	-13.4329
仕	-13.4329
叟	-13.4329
幌	-13.4329
斃	-13.4329
盉	-13.4329
礶	-13.4329
稦	-13.4329
箫	-13.4329
绸	-13.4329
艶	-13.4329
菩	-13.4329
赘	-13.4329
邵	-13.4329
雌	-13.4329
	-13.4329
	-13.4329
唸	-13.4674
岆	-13.4674
捂	-13.4674
橇	-13.4674
氰	-13.4674
羚	-13.4674
蠕	-13.4674
	-13.4674
ᶍ	-13.4674
ェ	-13.4674
凄	-13.4674
嗣	-13.4674
囱	-13.4674
惱	-13.4674
攸	-13.4674
枭	-13.4674
桅	-13.4674
殆	-13.4674
毅	-13.4674
泻	-13.4674
猥	-13.4674
蛎	-13.4674
陳	-13.4674
鸥	-13.4674
┤	-13.4674
狹	-13.4674
羁	-13.4674
鬍	-13.4674
沧	-13.4674
	-13.5031
蘋	-13.5031
凍	-13.5031
嗡	-13.5031
惭	-13.5031
珿	-13.5031
讪	-13.5031
迢	-13.5031
铎	-13.5031
黯	-13.5031
ü	-13.5031
フ	-13.5031
吕	-13.5031
咔	-13.5031
婭	-13.5031
瘪	-13.5031
碱	-13.5031
紊	-13.5031
釘	-13.5031
	-13.5031
ら	-13.5031
昌	-13.5031
柿	-13.5031
诽	-13.5031
噜	-13.5031
宛	-13.5031
祂	-13.5031
翱	-13.5031
	-13.5031
脖	-13.539
爲	-13.5402
辽	-13.5402
∕	-13.5402
〔	-13.5402
侥	-13.5402
彰	-13.5402
淤	-13.5402
筷	-13.5402
糧	-13.5402
鍋	-13.5402
鞍	-13.5402
帚	-13.5402
幣	-13.5402
擬	-13.5402
氦	-13.5402
沈	-13.5402
疮	-13.5402
矪	-13.5402
碭	-13.5402
窘	-13.5402
粟	-13.5402
翩	-13.5402
賜	-13.5402
蹋	-13.5402
鉤	-13.5402
钵	-13.5402
麋	-13.5402
	-13.5402
	-13.5402
吳	-13.5402
哒	-13.5402
嫔	-13.5402
琩	-13.5402
砌	-13.5402
羘	-13.5402
蔡	-13.5402
谚	-13.5402
谍	-13.5785
奄	-13.5786
	-13.5786
濃	-13.5786
迴	-13.5786
鹉	-13.5786
晦	-13.5786
諷	-13.5786
ゃ	-13.5786
匀	-13.5786
叁	-13.5786
哗	-13.5786
弩	-13.5786
枢	-13.5786
枷	-13.5786
梢	-13.5786
┣	-13.5786
僕	-13.5786
嫖	-13.5786
怠	-13.5786
恍	-13.5786
栖	-13.5786
涛	-13.5786
诬	-13.5786
貪	-13.5786
邏	-13.5786
	-13.5786
	-13.5786
冯	-13.5786
莺	-13.5786
裴	-13.5786
°	-13.5786
ç	-13.5786
瑚	-13.5786
睲	-13.5786
パ	-13.5786
括	-13.6185
癒	-13.6186
摯	-13.6186
痜	-13.6186
紗	-13.6186
藐	-13.6186
	-13.6186
喱	-13.6186
娥	-13.6186
柬	-13.6186
眶	-13.6186
祀	-13.6186
雳	-13.6186
驭	-13.6186
	-13.6186
	-13.6186
	-13.6186
凸	-13.6186
叢	-13.6186
咀	-13.6186
喵	-13.6186
囤	-13.6186
坂	-13.6186
灣	-13.6186
絆	-13.6186
績	-13.6186
绮	-13.6186
舆	-13.6186
誼	-13.6186
謬	-13.6186
逾	-13.6186
	-13.6186
	-13.6186
ظ	-13.6186
冉	-13.6186
啄	-13.6186
簸	-13.6186
胱	-13.6186
遢	-13.6186
邋	-13.6186
铛	-13.6186
擂	-13.6186
籃	-13.6186
雲	-13.6186
	-13.6186
	-13.6186
	-13.6186
榔	-13.6603
★	-13.6603
癳	-13.6603
	-13.6603
ň	-13.6603
◎	-13.6603
懶	-13.6603
渾	-13.6603
疙	-13.6603
禀	-13.6603
閣	-13.6603
頗	-13.6603
	-13.6603
	-13.6603
	-13.6603
	-13.6603
啪	-13.6603
奠	-13.6603
廂	-13.6603
挛	-13.6603
瞌	-13.6603
禬	-13.6603
糶	-13.6603
蔻	-13.6603
飽	-13.6603
	-13.6603
ガ	-13.6603
丶	-13.6603
侖	-13.6603
泌	-13.6603
疱	-13.6603
矗	-13.6603
詐	-13.6603
	-13.6603
	-13.6603
	-13.6603
╧	-13.6603
繰	-13.6603
啤	-13.7027
裆	-13.7038
飢	-13.7038
濫	-13.7038
苯	-13.7038
跺	-13.7038
喧	-13.7038
拎	-13.7038
撰	-13.7038
旯	-13.7038
狈	-13.7038
篝	-13.7038
э	-13.7038
儆	-13.7038
兢	-13.7038
墊	-13.7038
斕	-13.7038
楠	-13.7038
灶	-13.7038
癠	-13.7038
篱	-13.7038
耸	-13.7038
诵	-13.7038
趋	-13.7038
钛	-13.7038
饺	-13.7038
鳞	-13.7038
鼹	-13.7038
	-13.7038
	-13.7038
ゼ	-13.7038
倘	-13.7038
倪	-13.7038
吝	-13.7038
惰	-13.7038
拂	-13.7038
暮	-13.7038
淳	-13.7038
芹	-13.7038
顱	-13.7038
骯	-13.7038
	-13.7038
╆	-13.7038
僱	-13.7038
寮	-13.7038
眏	-13.7038
眤	-13.7038
臸	-13.7038
ť	-13.7038
珨	-13.7492
晤	-13.7492
磐	-13.7492
卿	-13.7492
矣	-13.7492
蓟	-13.7492
賂	-13.7492
龜	-13.7492
嵌	-13.7492
暇	-13.7492
欖	-13.7492
瘩	-13.7492
硑	-13.7492
稼	-13.7492
繧	-13.7492
胚	-13.7492
註	-13.7492
賄	-13.7492
姦	-13.7492
汲	-13.7492
澜	-13.7492
秤	-13.7492
筏	-13.7492
莅	-13.7492
萦	-13.7492
钾	-13.7492
驟	-13.7492
啧	-13.7492
睬	-13.7492
氟	-13.7492
澈	-13.7492
禿	-13.7492
隶	-13.7968
蒲	-13.7969
妝	-13.7969
巅	-13.7969
瞥	-13.7969
硅	-13.7969
錘	-13.7969
	-13.7969
〒	-13.7969
呻	-13.7969
奕	-13.7969
孪	-13.7969
槌	-13.7969
瑾	-13.7969
畴	-13.7969
盪	-13.7969
瞅	-13.7969
詢	-13.7969
鋪	-13.7969
る	-13.7969
ㄨ	-13.7969
乍	-13.7969
惚	-13.7969
憨	-13.7969
掳	-13.7969
攜	-13.7969
曬	-13.7969
潑	-13.7969
眈	-13.7969
瞩	-13.7969
蠅	-13.7969
襄	-13.7969
阑	-13.7969
頸	-13.7969
	-13.7969
	-13.7969
匈	-13.7969
叼	-13.7969
湧	-13.7969
濑	-13.7969
蓮	-13.7969
谛	-13.7969
钡	-13.7969
	-13.7969
	-13.7969
簆	-13.7969
籖	-13.7969
諜	-13.7969
	-13.7969
聪	-13.8466
姥	-13.8469
扪	-13.8469
婉	-13.8469
撿	-13.8469
沛	-13.8469
瓢	-13.8469
绎	-13.8469
覽	-13.8469
ǒ	-13.8469
Μ	-13.8469
嚨	-13.8469
怂	-13.8469
惬	-13.8469
摺	-13.8469
涴	-13.8469
潤	-13.8469
瓮	-13.8469
祕	-13.8469
竧	-13.8469
紮	-13.8469
菁	-13.8469
蕃	-13.8469
阎	-13.8469
霆	-13.8469
馒	-13.8469
駐	-13.8469
骡	-13.8469
黨	-13.8469
龐	-13.8469
	-13.8469
て	-13.8469
刪	-13.8469
剿	-13.8469
嚓	-13.8469
婷	-13.8469
峽	-13.8469
旭	-13.8469
杵	-13.8469
檳	-13.8469
櫥	-13.8469
肴	-13.8469
蟒	-13.8469
邱	-13.8469
隘	-13.8469
龊	-13.8469
龌	-13.8469
ē	-13.8469
ˋ	-13.8469
倡	-13.8469
刽	-13.8469
悅	-13.8469
搔	-13.8469
敛	-13.8469
洙	-13.8469
瑈	-13.8469
搓	-13.8469
	-13.8469
忒	-13.8469
擇	-13.8995
沌	-13.8995
碿	-13.8995
羈	-13.8995
貫	-13.8995
	-13.8995
妾	-13.8995
憩	-13.8995
攤	-13.8995
汞	-13.8995
痉	-13.8995
秉	-13.8995
罙	-13.8995
荆	-13.8995
鈔	-13.8995
駭	-13.8995
鹤	-13.8995
	-13.8995
	-13.8995
┏	-13.8995
ㄛ	-13.8995
怡	-13.8995
曆	-13.8995
瘀	-13.8995
缎	-13.8995
薦	-13.8995
袱	-13.8995
蹂	-13.8995
軀	-13.8995
锢	-13.8995
镣	-13.8995
闩	-13.8995
馊	-13.8995
鳖	-13.8995
	-13.8995
	-13.8995
	-13.8995
仨	-13.8995
恁	-13.8995
懵	-13.8995
盋	-13.8995
禾	-13.8995
簈	-13.8995
贮	-13.8995
躏	-13.8995
閨	-13.8995
ń	-13.8995
屹	-13.8995
珇	-13.8995
囧	-13.8995
	-13.8995
繺	-13.8995
の	-13.955
邂	-13.955
娛	-13.955
桔	-13.955
淺	-13.955
逅	-13.955
镀	-13.955
	-13.955
σ	-13.955
悖	-13.955
磷	-13.955
芜	-13.955
芦	-13.955
	-13.955
ƒ	-13.955
咫	-13.955
垠	-13.955
屜	-13.955
戛	-13.955
摁	-13.955
炙	-13.955
烩	-13.955
禜	-13.955
簗	-13.955
缔	-13.955
脓	-13.955
萃	-13.955
酌	-13.955
酶	-13.955
雏	-13.955
鹫	-13.955
	-13.955
	-13.955
	-13.955
	-13.955
	-13.955
佰	-13.955
嘭	-13.955
枫	-13.955
窺	-13.955
诧	-13.955
鼾	-13.955
	-13.955
	-13.955
婓	-13.955
皊	-13.955
	-13.955
褒	-13.955
	-13.955
芠	-13.955
襪	-14.0139
恪	-14.0139
ず	-14.0139
搐	-14.0139
擱	-14.0139
朕	-14.0139
竿	-14.0139
笲	-14.0139
胊	-14.0139
薰	-14.0139
銬	-14.0139
□	-14.0139
俞	-14.0139
喃	-14.0139
妲	-14.0139
娼	-14.0139
孰	-14.0139
栈	-14.0139
漓	-14.0139
瓊	-14.0139
痣	-14.0139
糑	-14.0139
臼	-14.0139
辍	-14.0139
鏢	-14.0139
铝	-14.0139
霄	-14.0139
侬	-14.0139
壇	-14.0139
壘	-14.0139
搵	-14.0139
渥	-14.0139
溉	-14.0139
獽	-14.0139
礹	-14.0139
纜	-14.0139
纺	-14.0139
腮	-14.0139
蚱	-14.0139
蛀	-14.0139
蛆	-14.0139
跛	-14.0139
踵	-14.0139
雹	-14.0139
馏	-14.0139
鳗	-14.0139
	-14.0139
	-14.0139
	-14.0139
	-14.0139
ダ	-14.0139
刁	-14.0139
啬	-14.0139
惋	-14.0139
歼	-14.0139
漱	-14.0139
穫	-14.0139
蛊	-14.0139
襯	-14.0139
謎	-14.0139
	-14.0139
潢	-14.0139
灑	-14.0139
禅	-14.0139
铬	-14.0139
々	-14.0139
蝗	-14.0139
峭	-14.0764
粑	-14.0764
缀	-14.0764
抠	-14.0764
捨	-14.0764
漩	-14.0764
瞻	-14.0764
胯	-14.0764
辟	-14.0764
	-14.0764
屯	-14.0764
摒	-14.0764
敘	-14.0764
榈	-14.0764
滓	-14.0764
瘆	-14.0764
綼	-14.0764
螳	-14.0764
袒	-14.0764
贈	-14.0764
輔	-14.0764
辗	-14.0764
遒	-14.0764
鋸	-14.0764
	-14.0764
啮	-14.0764
栩	-14.0764
潭	-14.0764
睽	-14.0764
穀	-14.0764
脐	-14.0764
銅	-14.0764
錶	-14.0764
顫	-14.0764
颖	-14.0764
魇	-14.0764
	-14.0764
	-14.0764
恆	-14.0764
搗	-14.0764
襟	-14.0764
讣	-14.0764
	-14.0764
┦	-14.0764
贰	-14.0764
緗	-14.0764
鄧	-14.0764
霰	-14.0764
	-14.0764
霖	-14.0764
趙	-14.0764
	-14.0764
婊	-14.1423
骄	-14.143
彬	-14.143
璣	-14.143
蕴	-14.143
迺	-14.143
眸	-14.143
孀	-14.143
皺	-14.143
盞	-14.143
罺	-14.143
阐	-14.143
鲑	-14.143
	-14.143
ฦ	-14.143
┋	-14.143
┕	-14.143
偕	-14.143
凜	-14.143
刨	-14.143
撵	-14.143
暢	-14.143
湍	-14.143
瘓	-14.143
磋	-14.143
銳	-14.143
鍾	-14.143
顛	-14.143
鯊	-14.143
	-14.143
カ	-14.143
ㄟ	-14.143
嘣	-14.143
寥	-14.143
徙	-14.143
榆	-14.143
獹	-14.143
疽	-14.143
礎	-14.143
翹	-14.143
遁	-14.143
釀	-14.143
鉗	-14.143
頑	-14.143
鵝	-14.143
	-14.143
	-14.143
Α	-14.143
ؤ	-14.143
├	-14.143
俭	-14.143
吮	-14.143
嗆	-14.143
嘈	-14.143
弛	-14.143
撸	-14.143
斌	-14.143
斟	-14.143
涩	-14.143
玙	-14.143
竡	-14.143
腇	-14.143
辘	-14.143
迂	-14.143
迥	-14.143
钠	-14.143
麾	-14.143
	-14.143
	-14.143
岱	-14.143
燙	-14.143
竚	-14.143
冢	-14.143
熨	-14.143
	-14.143
蚕	-14.143
蜗	-14.143
睛	-14.2143
須	-14.2144
彦	-14.2145
甊	-14.2145
垄	-14.2145
墮	-14.2145
屆	-14.2145
斬	-14.2145
焙	-14.2145
祢	-14.2145
綿	-14.2145
腋	-14.2145
頒	-14.2145
ホ	-14.2145
懇	-14.2145
檯	-14.2145
犊	-14.2145
砃	-14.2145
砞	-14.2145
茵	-14.2145
藻	-14.2145
讷	-14.2145
躍	-14.2145
酊	-14.2145
銜	-14.2145
閑	-14.2145
ユ	-14.2145
汐	-14.2145
湛	-14.2145
燼	-14.2145
牟	-14.2145
猌	-14.2145
璚	-14.2145
瞑	-14.2145
矬	-14.2145
禲	-14.2145
笃	-14.2145
脹	-14.2145
芸	-14.2145
褂	-14.2145
赡	-14.2145
輝	-14.2145
餌	-14.2145
饲	-14.2145
	-14.2145
£	-14.2145
亢	-14.2145
啱	-14.2145
囑	-14.2145
墩	-14.2145
擰	-14.2145
攫	-14.2145
汹	-14.2145
滕	-14.2145
炽	-14.2145
獠	-14.2145
腀	-14.2145
腑	-14.2145
迸	-14.2145
铠	-14.2145
镳	-14.2145
霞	-14.2145
飕	-14.2145
鸿	-14.2145
	-14.2145
è	-14.2145
а	-14.2145
姗	-14.2145
疊	-14.2145
秖	-14.2145
窱	-14.2145
苞	-14.2145
蚣	-14.2145
蝰	-14.2145
螢	-14.2145
謙	-14.2145
	-14.2145
	-14.2145
	-14.2145
蜈	-14.2145
╣	-14.2914
颶	-14.2914
丞	-14.2914
摻	-14.2914
痔	-14.2914
篊	-14.2914
続	-14.2914
臘	-14.2914
茂	-14.2914
赽	-14.2914
阪	-14.2914
	-14.2914
	-14.2914
̇	-14.2914
ヾ	-14.2914
侘	-14.2914
嘔	-14.2914
廓	-14.2914
斡	-14.2914
癵	-14.2914
禄	-14.2914
籐	-14.2914
紳	-14.2914
臮	-14.2914
蒐	-14.2914
蹿	-14.2914
鈕	-14.2914
μ	-14.2914
ъ	-14.2914
剐	-14.2914
吠	-14.2914
圭	-14.2914
嬷	-14.2914
帷	-14.2914
懧	-14.2914
暧	-14.2914
獾	-14.2914
玱	-14.2914
睐	-14.2914
秸	-14.2914
綜	-14.2914
臩	-14.2914
訣	-14.2914
遷	-14.2914
釁	-14.2914
黍	-14.2914
Г	-14.2914
剎	-14.2914
啞	-14.2914
廈	-14.2914
彿	-14.2914
恿	-14.2914
惮	-14.2914
淇	-14.2914
皿	-14.2914
筐	-14.2914
絃	-14.2914
臱	-14.2914
螫	-14.2914
骁	-14.2914
鴨	-14.2914
	-14.2914
ざ	-14.2914
暱	-14.2914
棱	-14.2914
玒	-14.2914
琘	-14.2914
甧	-14.2914
甮	-14.2914
骏	-14.2914
鴉	-14.2914
	-14.2914
〖	-14.2914
秦	-14.2914
纲	-14.2914
鎊	-14.2914
傢	-14.3747
噱	-14.3747
穐	-14.3747
昱	-14.3747
癲	-14.3747
☆	-14.3747
ゅ	-14.3747
壺	-14.3747
沽	-14.3747
癱	-14.3747
禧	-14.3747
糒	-14.3747
胳	-14.3747
ミ	-14.3747
咄	-14.3747
啜	-14.3747
捱	-14.3747
旬	-14.3747
涤	-14.3747
澎	-14.3747
瓁	-14.3747
箴	-14.3747
綽	-14.3747
虜	-14.3747
赁	-14.3747
鲶	-14.3747
	-14.3747
Ы	-14.3747
俐	-14.3747
厥	-14.3747
塢	-14.3747
杳	-14.3747
枣	-14.3747
琎	-14.3747
琜	-14.3747
瑣	-14.3747
癢	-14.3747
稠	-14.3747
簘	-14.3747
紛	-14.3747
繦	-14.3747
繳	-14.3747
膥	-14.3747
蔥	-14.3747
蘸	-14.3747
轩	-14.3747
酝	-14.3747
铂	-14.3747
霓	-14.3747
│	-14.3747
剋	-14.3747
叩	-14.3747
呸	-14.3747
哞	-14.3747
噠	-14.3747
噸	-14.3747
屡	-14.3747
岐	-14.3747
岚	-14.3747
忡	-14.3747
扞	-14.3747
桦	-14.3747
灸	-14.3747
牒	-14.3747
瞰	-14.3747
砫	-14.3747
竲	-14.3747
罖	-14.3747
舦	-14.3747
葆	-14.3747
葩	-14.3747
蟆	-14.3747
褓	-14.3747
蹟	-14.3747
鄂	-14.3747
醃	-14.3747
鏟	-14.3747
Ã	-14.3747
ṇ	-14.3747
涎	-14.3747
湮	-14.3747
絬	-14.3747
縉	-14.3747
闊	-14.3747
魷	-14.3747
	-14.3747
	-14.3747
れ	-14.3747
媾	-14.3747
帧	-14.3747
櫟	-14.3747
琍	-14.3747
羪	-14.3747
	-14.3747
	-14.3747
	-14.3747
绍	-14.4656
Ρ	-14.4656
晉	-14.4656
瑀	-14.4656
勳	-14.4656
彆	-14.4656
钙	-14.4656
	-14.4656
	-14.4656
ì	-14.4656
ル	-14.4656
檸	-14.4656
瀆	-14.4656
甶	-14.4656
羙	-14.4656
荻	-14.4656
轧	-14.4656
酩	-14.4656
铤	-14.4656
餡	-14.4656
鳕	-14.4656
侨	-14.4656
怦	-14.4656
炊	-14.4656
甦	-14.4656
竛	-14.4656
莖	-14.4656
觊	-14.4656
觎	-14.4656
訕	-14.4656
じ	-14.4656
侃	-14.4656
吏	-14.4656
嘍	-14.4656
囔	-14.4656
峨	-14.4656
惘	-14.4656
梆	-14.4656
涸	-14.4656
淩	-14.4656
痿	-14.4656
矚	-14.4656
磚	-14.4656
簎	-14.4656
綾	-14.4656
纞	-14.4656
缄	-14.4656
缕	-14.4656
菱	-14.4656
萍	-14.4656
蟻	-14.4656
覃	-14.4656
诋	-14.4656
谔	-14.4656
鈷	-14.4656
鍛	-14.4656
鑿	-14.4656
隕	-14.4656
	-14.4656
́	-14.4656
Γ	-14.4656
๒	-14.4656
๕	-14.4656
๘	-14.4656
ゞ	-14.4656
ヅ	-14.4656
坷	-14.4656
孚	-14.4656
忱	-14.4656
挾	-14.4656
淪	-14.4656
漬	-14.4656
燎	-14.4656
獀	-14.4656
痢	-14.4656
矹	-14.4656
砊	-14.4656
磀	-14.4656
緓	-14.4656
緹	-14.4656
縊	-14.4656
缜	-14.4656
聾	-14.4656
舶	-14.4656
蜚	-14.4656
衩	-14.4656
鑄	-14.4656
镍	-14.4656
霾	-14.4656
飆	-14.4656
馴	-14.4656
	-14.4656
	-14.4656
α	-14.4656
ᶂ	-14.4656
キ	-14.4656
佯	-14.4656
剽	-14.4656
癶	-14.4656
赝	-14.4656
饑	-14.4656
馀	-14.4656
ю	-14.4656
嗶	-14.4656
甉	-14.4656
玵	-14.4656
髋	-14.4656
鳳	-14.4656
	-14.4656
	-14.5656
祔	-14.5656
猔	-14.5656
琂	-14.5656
蜍	-14.5656
坻	-14.5656
憬	-14.5656
耞	-14.5656
蜇	-14.5656
蟾	-14.5656
褫	-14.5656
诠	-14.5656
锹	-14.5656
抨	-14.5656
暨	-14.5656
沏	-14.5656
碩	-14.5656
籜	-14.5656
褻	-14.5656
譴	-14.5656
駁	-14.5656
	-14.5656
凋	-14.5656
嚐	-14.5656
嚮	-14.5656
垩	-14.5656
孺	-14.5656
寢	-14.5656
庶	-14.5656
抡	-14.5656
擲	-14.5656
泯	-14.5656
瘴	-14.5656
祉	-14.5656
禣	-14.5656
笋	-14.5656
箂	-14.5656
箩	-14.5656
缽	-14.5656
罂	-14.5656
肅	-14.5656
胔	-14.5656
蔔	-14.5656
赊	-14.5656
頌	-14.5656
飚	-14.5656
鳴	-14.5656
鴿	-14.5656
鹑	-14.5656
	-14.5656
	-14.5656
	-14.5656
К	-14.5656
ๅ	-14.5656
ぺ	-14.5656
佼	-14.5656
冗	-14.5656
呣	-14.5656
嗪	-14.5656
擼	-14.5656
珈	-14.5656
璞	-14.5656
疣	-14.5656
窑	-14.5656
笹	-14.5656
緻	-14.5656
繃	-14.5656
羨	-14.5656
荤	-14.5656
蜢	-14.5656
诲	-14.5656
谙	-14.5656
轍	-14.5656
鍊	-14.5656
镭	-14.5656
饯	-14.5656
馁	-14.5656
馋	-14.5656
	-14.5656
	-14.5656
๑	-14.5656
俑	-14.5656
唏	-14.5656
唑	-14.5656
嬴	-14.5656
岑	-14.5656
峙	-14.5656
廄	-14.5656
潦	-14.5656
癟	-14.5656
禪	-14.5656
箇	-14.5656
籤	-14.5656
臍	-14.5656
讧	-14.5656
鑣	-14.5656
頰	-14.5656
	-14.5656
	-14.5656
岡	-14.5656
拄	-14.5656
掖	-14.5656
撓	-14.5656
滲	-14.5656
竇	-14.5656
艷	-14.5656
芋	-14.5656
豎	-14.5656
錫	-14.5656
颞	-14.5656
孓	-14.5656
巩	-14.5656
纫	-14.5656
绢	-14.5656
̈	-14.5656
ㄣ	-14.5656
慫	-14.5656
窾	-14.5656
鈍	-14.5656
鮭	-14.5656
	-14.5656
怖	-14.6767
	-14.6767
〇	-14.6767
琿	-14.6767
緑	-14.6767
搽	-14.6767
馭	-14.6767
	-14.6767
	-14.6767
を	-14.6767
俚	-14.6767
憧	-14.6767
漁	-14.6767
笴	-14.6767
箉	-14.6767
膳	-14.6767
跚	-14.6767
蹒	-14.6767
辮	-14.6767
	-14.6767
╬	-14.6767
ㄧ	-14.6767
偎	-14.6767
卤	-14.6767
孜	-14.6767
扈	-14.6767
櫻	-14.6767
玦	-14.6767
祠	-14.6767
筂	-14.6767
茴	-14.6767
蹬	-14.6767
隅	-14.6767
鳟	-14.6767
	-14.6767
	-14.6767
π	-14.6767
〡	-14.6767
ゝ	-14.6767
媲	-14.6767
恣	-14.6767
漲	-14.6767
燬	-14.6767
窿	-14.6767
簍	-14.6767
籇	-14.6767
綵	-14.6767
蔫	-14.6767
蜕	-14.6767
衄	-14.6767
貞	-14.6767
郭	-14.6767
鬓	-14.6767
	-14.6767
	-14.6767
	-14.6767
	-14.6767
∥	-14.6767
┶	-14.6767
嚯	-14.6767
搾	-14.6767
擤	-14.6767
攥	-14.6767
楷	-14.6767
櫚	-14.6767
浊	-14.6767
涮	-14.6767
漾	-14.6767
璜	-14.6767
眺	-14.6767
瞏	-14.6767
矜	-14.6767
砲	-14.6767
粿	-14.6767
絤	-14.6767
緅	-14.6767
缤	-14.6767
虞	-14.6767
説	-14.6767
讬	-14.6767
貿	-14.6767
輻	-14.6767
颓	-14.6767
鹌	-14.6767
	-14.6767
	-14.6767
	-14.6767
в	-14.6767
๔	-14.6767
๖	-14.6767
咿	-14.6767
哧	-14.6767
壩	-14.6767
娟	-14.6767
孃	-14.6767
悸	-14.6767
拈	-14.6767
歎	-14.6767
淀	-14.6767
猵	-14.6767
璧	-14.6767
瞦	-14.6767
矶	-14.6767
砧	-14.6767
箍	-14.6767
篓	-14.6767
簇	-14.6767
羬	-14.6767
蚓	-14.6767
釜	-14.6767
	-14.6767
	-14.6767
と	-14.6767
ㄘ	-14.6767
弈	-14.6767
朦	-14.6767
猖	-14.6767
皗	-14.6767
紇	-14.6767
藓	-14.6767
蚯	-14.6767
	-14.6767
	-14.6767
	-14.6767
	-14.6767
╯	-14.6767
婕	-14.6767
彙	-14.6767
漉	-14.6767
珩	-14.6767
璺	-14.8017
绐	-14.8017
ヰ	-14.8017
汩	-14.8017
痚	-14.8017
糞	-14.8017
絏	-14.8017
闰	-14.8017
|	-14.8017
ご	-14.8017
氫	-14.8017
秏	-14.8017
袤	-14.8017
讳	-14.8017
	-14.8017
	-14.8017
ц	-14.8017
チ	-14.8017
妪	-14.8017
敝	-14.8017
椭	-14.8017
澆	-14.8017
猬	-14.8017
甤	-14.8017
糜	-14.8017
綢	-14.8017
羶	-14.8017
膙	-14.8017
褶	-14.8017
跆	-14.8017
閥	-14.8017
鲛	-14.8017
	-14.8017
姘	-14.8017
徨	-14.8017
戾	-14.8017
撩	-14.8017
攏	-14.8017
熹	-14.8017
痝	-14.8017
瘁	-14.8017
癇	-14.8017
碕	-14.8017
綛	-14.8017
縷	-14.8017
繪	-14.8017
葫	-14.8017
螞	-14.8017
踌	-14.8017
钯	-14.8017
阂	-14.8017
鳍	-14.8017
龛	-14.8017
	-14.8017
	-14.8017
φ	-14.8017
๙	-14.8017
〃	-14.8017
嘢	-14.8017
垣	-14.8017
廟	-14.8017
暉	-14.8017
沥	-14.8017
畍	-14.8017
畒	-14.8017
碴	-14.8017
祅	-14.8017
篋	-14.8017
籔	-14.8017
粇	-14.8017
絮	-14.8017
膈	-14.8017
茁	-14.8017
蜷	-14.8017
裱	-14.8017
锵	-14.8017
镰	-14.8017
靛	-14.8017
麸	-14.8017
	-14.8017
	-14.8017
	-14.8017
	-14.8017
ま	-14.8017
兌	-14.8017
剷	-14.8017
嘮	-14.8017
嶺	-14.8017
廿	-14.8017
敖	-14.8017
犁	-14.8017
珂	-14.8017
珆	-14.8017
疟	-14.8017
眎	-14.8017
篈	-14.8017
荞	-14.8017
蔷	-14.8017
蹶	-14.8017
隼	-14.8017
鸵	-14.8017
ス	-14.8017
デ	-14.8017
冶	-14.8017
涣	-14.8017
燉	-14.8017
猝	-14.8017
羭	-14.8017
耑	-14.8017
芔	-14.8017
	-14.8017
┯	-14.8017
璉	-14.8017
穛	-14.8017
	-14.8017
嘯	-14.8017
篩	-14.8017
粆	-14.8017
妦	-14.8017
硈	-14.8017
禫	-14.9446
ㄚ	-14.9446
腨	-14.9446
が	-14.9446
笠	-14.9446
賢	-14.9446
轎	-14.9446
錦	-14.9446
	-14.9446
掸	-14.9446
稬	-14.9446
竅	-14.9446
腓	-14.9446
陡	-14.9446
顷	-14.9446
驮	-14.9446
	-14.9446
┎	-14.9446
ㄎ	-14.9446
埔	-14.9446
忐	-14.9446
暹	-14.9446
曳	-14.9446
磊	-14.9446
簪	-14.9446
蕭	-14.9446
蘊	-14.9446
蜊	-14.9446
蜿	-14.9446
閘	-14.9446
鳏	-14.9446
鹏	-14.9446
	-14.9446
俣	-14.9446
啾	-14.9446
囂	-14.9446
塚	-14.9446
瀕	-14.9446
瑍	-14.9446
畉	-14.9446
篑	-14.9446
絪	-14.9446
繡	-14.9446
羸	-14.9446
舛	-14.9446
蓖	-14.9446
蚝	-14.9446
蜒	-14.9446
銘	-14.9446
颐	-14.9446
颧	-14.9446
驢	-14.9446
鸯	-14.9446
鸳	-14.9446
	-14.9446
	-14.9446
	-14.9446
	-14.9446
©	-14.9446
κ	-14.9446
ψ	-14.9446
せ	-14.9446
は	-14.9446
刎	-14.9446
呷	-14.9446
啵	-14.9446
忑	-14.9446
拮	-14.9446
撅	-14.9446
昊	-14.9446
楞	-14.9446
渝	-14.9446
湃	-14.9446
爻	-14.9446
玟	-14.9446
疝	-14.9446
砝	-14.9446
碘	-14.9446
穢	-14.9446
竣	-14.9446
籹	-14.9446
緯	-14.9446
纖	-14.9446
绚	-14.9446
襁	-14.9446
诩	-14.9446
谧	-14.9446
貉	-14.9446
贓	-14.9446
铆	-14.9446
锰	-14.9446
闌	-14.9446
飪	-14.9446
	-14.9446
฿	-14.9446
冀	-14.9446
嬌	-14.9446
岬	-14.9446
獗	-14.9446
癣	-14.9446
粤	-14.9446
纰	-14.9446
讃	-14.9446
踱	-14.9446
酣	-14.9446
醛	-14.9446
镊	-14.9446
嘆	-14.9446
娴	-14.9446
掣	-14.9446
毡	-14.9446
滇	-14.9446
玥	-14.9446
癥	-14.9446
碙	-14.9446
铱	-14.9446
鲱	-14.9446
	-14.9446
	-14.9446
з	-14.9446
挞	-14.9446
甅	-14.9446
豈	-14.9446
豺	-14.9446
鸠	-14.9446
	-14.9446
	-14.9446
奻	-14.9446
瑻	-14.9446
谘	-14.9446
	-14.9446
Í	-14.9446
嬲	-14.9446
恃	-14.9446
硉	-14.9446
緬	-14.9446
縐	-14.9446
渤	-14.9446
甄	-14.9446
ව	-14.9446
讶	-15.1112
窯	-15.1113
眕	-15.1113
諧	-15.1113
毗	-15.1113
к	-15.1113
ㄩ	-15.1113
巖	-15.1113
熾	-15.1113
璀	-15.1113
绉	-15.1113
	-15.1113
	-15.1113
	-15.1113
┢	-15.1113
坴	-15.1113
夔	-15.1113
奀	-15.1113
弋	-15.1113
皈	-15.1113
瞨	-15.1113
矽	-15.1113
穘	-15.1113
纊	-15.1113
舀	-15.1113
菸	-15.1113
鉀	-15.1113
錮	-15.1113
	-15.1113
で	-15.1113
ㄑ	-15.1113
倚	-15.1113
傖	-15.1113
嗤	-15.1113
恸	-15.1113
欸	-15.1113
潺	-15.1113
瀏	-15.1113
燴	-15.1113
狒	-15.1113
瑅	-15.1113
畓	-15.1113
発	-15.1113
砾	-15.1113
竜	-15.1113
罹	-15.1113
趨	-15.1113
馮	-15.1113
	-15.1113
	-15.1113
	-15.1113
咝	-15.1113
嶄	-15.1113
	-15.1113
ケ	-15.1113
ㄉ	-15.1113
佻	-15.1113
円	-15.1113
哽	-15.1113
啓	-15.1113
嚥	-15.1113
娄	-15.1113
婢	-15.1113
孢	-15.1113
怏	-15.1113
慵	-15.1113
捻	-15.1113
搪	-15.1113
曰	-15.1113
榛	-15.1113
槃	-15.1113
殷	-15.1113
洶	-15.1113
洼	-15.1113
淵	-15.1113
滷	-15.1113
爍	-15.1113
珉	-15.1113
璽	-15.1113
砏	-15.1113
穕	-15.1113
穨	-15.1113
笈	-15.1113
笞	-15.1113
笻	-15.1113
羛	-15.1113
耫	-15.1113
肓	-15.1113
膍	-15.1113
膺	-15.1113
臊	-15.1113
蔨	-15.1113
讥	-15.1113
谏	-15.1113
鉛	-15.1113
鑑	-15.1113
锆	-15.1113
鞘	-15.1113
颚	-15.1113
飄	-15.1113
	-15.1113
	-15.1113
&	-15.1113
Ь	-15.1113
м	-15.1113
๓	-15.1113
ㄒ	-15.1113
侩	-15.1113
吆	-15.1113
喈	-15.1113
岈	-15.1113
幟	-15.1113
廝	-15.1113
摞	-15.1113
晄	-15.1113
滯	-15.1113
濺	-15.1113
煲	-15.1113
犒	-15.1113
瑰	-15.1113
皚	-15.1113
祘	-15.1113
穎	-15.1113
窰	-15.1113
綤	-15.1113
綴	-15.1113
綺	-15.1113
羟	-15.1113
腩	-15.1113
膊	-15.1113
裳	-15.1113
褥	-15.1113
诏	-15.1113
跶	-15.1113
鏽	-15.1113
钽	-15.1113
铿	-15.1113
鲤	-15.1113
	-15.1113
	-15.1113
⊙	-15.1113
壅	-15.1113
嫡	-15.1113
忿	-15.1113
撈	-15.1113
昙	-15.1113
樟	-15.1113
檀	-15.1113
殄	-15.1113
泞	-15.1113
瓀	-15.1113
畑	-15.1113
癞	-15.1113
箔	-15.1113
緍	-15.1113
縒	-15.1113
耚	-15.1113
脯	-15.1113
蝕	-15.1113
讹	-15.1113
锭	-15.1113
韌	-15.1113
鲇	-15.1113
鶴	-15.1113
黴	-15.1113
〈	-15.1113
亘	-15.1113
槓	-15.1113
膩	-15.1113
蛭	-15.1113
蝉	-15.1113
§	-15.1113
熠	-15.1113
疡	-15.1113
瘂	-15.1113
繻	-15.1113
胧	-15.1113
荊	-15.1113
藕	-15.1113
蹚	-15.1113
骋	-15.1113
	-15.1113
揩	-15.1113
紆	-15.1113
	-15.1113
	-15.1113
∩	-15.1113
蓓	-15.1113
─	-15.2377
陛	-15.3104
嗖	-15.3112
癚	-15.3113
埻	-15.3113
耴	-15.3113
岖	-15.3113
欽	-15.3113
筽	-15.3113
聐	-15.3113
蜃	-15.3113
謗	-15.3113
	-15.3113
	-15.3113
咭	-15.3113
痂	-15.3113
や	-15.3113
娠	-15.3113
慇	-15.3113
珃	-15.3113
璨	-15.3113
窣	-15.3113
竄	-15.3113
竺	-15.3113
缰	-15.3113
襠	-15.3113
郴	-15.3113
阖	-15.3113
飼	-15.3113
麟	-15.3113
	-15.3113
	-15.3113
	-15.3113
	-15.3113
わ	-15.3113
亟	-15.3113
妊	-15.3113
嫒	-15.3113
恬	-15.3113
杞	-15.3113
殓	-15.3113
湎	-15.3113
猁	-15.3113
盂	-15.3113
盃	-15.3113
睼	-15.3113
祛	-15.3113
稜	-15.3113
簀	-15.3113
緘	-15.3113
縤	-15.3113
缈	-15.3113
缥	-15.3113
羲	-15.3113
袅	-15.3113
諳	-15.3113
貶	-15.3113
跻	-15.3113
遐	-15.3113
鈣	-15.3113
鈦	-15.3113
錠	-15.3113
黜	-15.3113
齪	-15.3113
吽	-15.3113
奚	-15.3113
孑	-15.3113
愜	-15.3113
搀	-15.3113
槲	-15.3113
汴	-15.3113
猓	-15.3113
钸	-15.3113
→	-15.3113
す	-15.3113
め	-15.3113
ォ	-15.3113
メ	-15.3113
佃	-15.3113
兀	-15.3113
冧	-15.3113
凈	-15.3113
匍	-15.3113
匐	-15.3113
叻	-15.3113
哝	-15.3113
唁	-15.3113
啋	-15.3113
啕	-15.3113
啶	-15.3113
喙	-15.3113
嗲	-15.3113
噹	-15.3113
妺	-15.3113
屄	-15.3113
崙	-15.3113
嵩	-15.3113
斂	-15.3113
杭	-15.3113
柵	-15.3113
梓	-15.3113
梟	-15.3113
梧	-15.3113
槛	-15.3113
毆	-15.3113
沓	-15.3113
泓	-15.3113
泮	-15.3113
濡	-15.3113
濾	-15.3113
玖	-15.3113
琉	-15.3113
琶	-15.3113
痨	-15.3113
瘠	-15.3113
眃	-15.3113
窦	-15.3113
笰	-15.3113
笿	-15.3113
簾	-15.3113
籊	-15.3113
粂	-15.3113
糷	-15.3113
翟	-15.3113
肽	-15.3113
胛	-15.3113
臃	-15.3113
萱	-15.3113
蔗	-15.3113
蔚	-15.3113
蛔	-15.3113
觐	-15.3113
觑	-15.3113
訾	-15.3113
誹	-15.3113
诣	-15.3113
贗	-15.3113
趸	-15.3113
邢	-15.3113
酯	-15.3113
鎘	-15.3113
镁	-15.3113
韁	-15.3113
韻	-15.3113
髪	-15.3113
鲈	-15.3113
鸨	-15.3113
鹊	-15.3113
	-15.3113
	-15.3113
	-15.3113
	-15.3113
	-15.3113
	-15.3113
	-15.3113
	-15.3113
	-15.3113
	-15.3113
×	-15.3113
卯	-15.3113
廖	-15.3113
彥	-15.3113
抒	-15.3113
痺	-15.3113
縈	-15.3113
蛹	-15.3113
锉	-15.3113
	-15.3113
咡	-15.3113
憫	-15.3113
摟	-15.3113
珹	-15.3113
竝	-15.3113
莹	-15.3113
蕨	-15.3113
鋁	-15.3113
鎗	-15.3113
钋	-15.3113
锂	-15.3113
锌	-15.3113
鬣	-15.3113
鱷	-15.3113
	-15.3113
	-15.3113
	-15.3113
萸	-15.3113
陕	-15.3113
у	-15.3113
オ	-15.3113
樑	-15.3113
毖	-15.3113
燦	-15.3113
穓	-15.3113
羥	-15.3113
聳	-15.3113
腯	-15.3113
荨	-15.3113
蚩	-15.3113
钧	-15.3113
锄	-15.3113
	-15.3113
	-15.3113
	-15.3113
	-15.3113
倩	-15.3113
弭	-15.3113
忤	-15.3113
樞	-15.3113
緈	-15.3113
繬	-15.3113
擢	-15.3113
砑	-15.3113
罠	-15.3113
	-15.3113
窈	-15.5613
窕	-15.5613
綻	-15.5613
	-15.5613
	-15.5613
¥	-15.5613
╭	-15.5613
懑	-15.5613
肱	-15.5613
雁	-15.5613
	-15.5613
鐳	-15.5613
こ	-15.5613
匮	-15.5613
変	-15.5613
娓	-15.5613
惴	-15.5613
捌	-15.5613
捶	-15.5613
樊	-15.5613
殒	-15.5613
氾	-15.5613
獿	-15.5613
畐	-15.5613
瘙	-15.5613
籮	-15.5613
翧	-15.5613
苑	-15.5613
蜆	-15.5613
诌	-15.5613
陑	-15.5613
	-15.5613
	-15.5613
	-15.5613
戎	-15.5613
楔	-15.5613
渦	-15.5613
舖	-15.5613
╪	-15.5613
か	-15.5613
剌	-15.5613
嚙	-15.5613
圄	-15.5613
婬	-15.5613
弒	-15.5613
怮	-15.5613
桀	-15.5613
棠	-15.5613
橈	-15.5613
潸	-15.5613
焘	-15.5613
璃	-15.5613
瘺	-15.5613
盥	-15.5613
砯	-15.5613
纨	-15.5613
绔	-15.5613
肞	-15.5613
衱	-15.5613
谀	-15.5613
踐	-15.5613
辄	-15.5613
醞	-15.5613
鑼	-15.5613
钏	-15.5613
钴	-15.5613
陞	-15.5613
靚	-15.5613
饷	-15.5613
馱	-15.5613
馳	-15.5613
駿	-15.5613
骜	-15.5613
鯨	-15.5613
鱗	-15.5613
	-15.5613
哆	-15.5613
慚	-15.5613
曠	-15.5613
涟	-15.5613
蝌	-15.5613
誡	-15.5613
鞏	-15.5613
餬	-15.5613
¤	-15.5613
ය	-15.5613
∣	-15.5613
┍	-15.5613
▆	-15.5613
█	-15.5613
き	-15.5613
ブ	-15.5613
丨	-15.5613
倌	-15.5613
劾	-15.5613
匼	-15.5613
唳	-15.5613
嗙	-15.5613
嗬	-15.5613
嘧	-15.5613
噘	-15.5613
圃	-15.5613
埣	-15.5613
堑	-15.5613
寰	-15.5613
屣	-15.5613
忾	-15.5613
恹	-15.5613
憊	-15.5613
拗	-15.5613
掮	-15.5613
摳	-15.5613
攣	-15.5613
晝	-15.5613
楊	-15.5613
浃	-15.5613
淒	-15.5613
淬	-15.5613
滄	-15.5613
焖	-15.5613
焗	-15.5613
狽	-15.5613
狾	-15.5613
獃	-15.5613
珸	-15.5613
畕	-15.5613
疸	-15.5613
痰	-15.5613
皓	-15.5613
盰	-15.5613
睏	-15.5613
矯	-15.5613
砓	-15.5613
礟	-15.5613
礮	-15.5613
祙	-15.5613
禥	-15.5613
秅	-15.5613
穞	-15.5613
笺	-15.5613
簔	-15.5613
簫	-15.5613
籬	-15.5613
糃	-15.5613
紡	-15.5613
絨	-15.5613
緄	-15.5613
繆	-15.5613
纣	-15.5613
缭	-15.5613
罽	-15.5613
腴	-15.5613
膌	-15.5613
膿	-15.5613
臫	-15.5613
臻	-15.5613
苺	-15.5613
萇	-15.5613
蔭	-15.5613
藿	-15.5613
蚪	-15.5613
蛂	-15.5613
蛰	-15.5613
衙	-15.5613
訟	-15.5613
豉	-15.5613
貘	-15.5613
贅	-15.5613
赳	-15.5613
跎	-15.5613
蹉	-15.5613
辊	-15.5613
釬	-15.5613
鎰	-15.5613
鐲	-15.5613
閹	-15.5613
顎	-15.5613
饋	-15.5613
黝	-15.5613
齷	-15.5613
龈	-15.5613
	-15.5613
	-15.5613
	-15.5613
	-15.5613
	-15.5613
	-15.5613
	-15.5613
	-15.5613
	-15.5613
	-15.5613
	-15.5613
	-15.5613
	-15.5613
	-15.5613
γ	-15.5613
喏	-15.5613
嘩	-15.5613
幔	-15.5613
揸	-15.5613
暄	-15.5613
犷	-15.5613
珼	-15.5613
甐	-15.5613
籁	-15.5613
镫	-15.5613
龅	-15.5613
	-15.5613
へ	-15.5613
ニ	-15.5613
僥	-15.5613
僮	-15.5613
嗚	-15.5613
庵	-15.5613
慄	-15.5613
懺	-15.5613
戊	-15.5613
橢	-15.5613
毞	-15.5613
猀	-15.5613
猳	-15.5613
玀	-15.5613
琁	-15.5613
畿	-15.5613
眭	-15.5613
祏	-15.5613
秞	-15.5613
縀	-15.5613
纃	-15.5613
纶	-15.5613
缮	-15.5613
耋	-15.5613
脛	-15.5613
荔	-15.5613
荜	-15.5613
谆	-15.5613
蹑	-15.5613
闡	-15.5613
雋	-15.5613
	-15.5613
	-15.5613
	-15.5613
摹	-15.5613
泷	-15.5613
瀟	-15.5613
翎	-15.5613
Ñ	-15.5613
囹	-15.5613
恺	-15.5613
拸	-15.5613
楝	-15.5613
淖	-15.5613
獁	-15.5613
瞴	-15.5613
砋	-15.5613
硓	-15.5613
碜	-15.5613
芛	-15.5613
芲	-15.5613
蝋	-15.5613
轆	-15.5613
遨	-15.5613
郸	-15.5613
锲	-15.5613
М	-15.5613
ィ	-15.5613
竕	-15.5613
篗	-15.5613
	-15.5613
	-15.5613
荪	-15.5613
胓	-15.5613
	-15.5613
係	-15.8945
霎	-15.8946
щ	-15.8946
※	-15.8946
朊	-15.8946
磝	-15.8946
舠	-15.8946
輿	-15.8946
	-15.8946
Й	-15.8946
痌	-15.8946
砐	-15.8946
籓	-15.8946
氩	-15.8946
┑	-15.8946
┖	-15.8946
〨	-15.8946
ふ	-15.8946
ㄗ	-15.8946
佽	-15.8946
咣	-15.8946
坳	-15.8946
愎	-15.8946
樵	-15.8946
狶	-15.8946
璓	-15.8946
甽	-15.8946
畝	-15.8946
祗	-15.8946
簙	-15.8946
籥	-15.8946
糵	-15.8946
繨	-15.8946
膘	-15.8946
蚌	-15.8946
趼	-15.8946
郔	-15.8946
飒	-15.8946
鲷	-15.8946
齣	-15.8946
	-15.8946
	-15.8946
	-15.8946
	-15.8946
	-15.8946
咙	-15.8946
涝	-15.8946
铰	-15.8946
п	-15.8946
┚	-15.8946
伫	-15.8946
俳	-15.8946
刍	-15.8946
叵	-15.8946
嘰	-15.8946
壑	-15.8946
妫	-15.8946
婁	-15.8946
戍	-15.8946
摈	-15.8946
旮	-15.8946
昴	-15.8946
樸	-15.8946
橾	-15.8946
濤	-15.8946
炔	-15.8946
珑	-15.8946
琕	-15.8946
瑿	-15.8946
痻	-15.8946
砣	-15.8946
祑	-15.8946
禔	-15.8946
穖	-15.8946
筧	-15.8946
篶	-15.8946
粼	-15.8946
紉	-15.8946
綪	-15.8946
緞	-15.8946
苻	-15.8946
茼	-15.8946
蒩	-15.8946
蕈	-15.8946
蕪	-15.8946
蝾	-15.8946
諫	-15.8946
贲	-15.8946
邃	-15.8946
邝	-15.8946
鈉	-15.8946
靂	-15.8946
馄	-15.8946
鳝	-15.8946
	-15.8946
	-15.8946
	-15.8946
俸	-15.8946
匾	-15.8946
卉	-15.8946
垃	-15.8946
妩	-15.8946
盅	-15.8946
糔	-15.8946
葡	-15.8946
躇	-15.8946
錾	-15.8946
鑫	-15.8946
颱	-15.8946
Ë	-15.8946
ò	-15.8946
Ψ	-15.8946
δ	-15.8946
В	-15.8946
ч	-15.8946
๐	-15.8946
๗	-15.8946
┷	-15.8946
┻	-15.8946
┿	-15.8946
╰	-15.8946
▌	-15.8946
ど	-15.8946
ゆ	-15.8946
ナ	-15.8946
レ	-15.8946
倳	-15.8946
儂	-15.8946
剉	-15.8946
匝	-15.8946
啐	-15.8946
啖	-15.8946
嘁	-15.8946
嘸	-15.8946
噌	-15.8946
噙	-15.8946
噚	-15.8946
噼	-15.8946
圾	-15.8946
垚	-15.8946
夯	-15.8946
嫻	-15.8946
嬤	-15.8946
宥	-15.8946
崴	-15.8946
嶼	-15.8946
帼	-15.8946
幡	-15.8946
徉	-15.8946
徜	-15.8946
怢	-15.8946
惆	-15.8946
愫	-15.8946
懾	-15.8946
搡	-15.8946
撙	-15.8946
曜	-15.8946
杓	-15.8946
桎	-15.8946
梏	-15.8946
榕	-15.8946
榫	-15.8946
榭	-15.8946
榻	-15.8946
槳	-15.8946
欴	-15.8946
歃	-15.8946
毂	-15.8946
氈	-15.8946
汜	-15.8946
灞	-15.8946
煦	-15.8946
犄	-15.8946
犭	-15.8946
猡	-15.8946
琅	-15.8946
瑙	-15.8946
璹	-15.8946
甕	-15.8946
畄	-15.8946
疍	-15.8946
皘	-15.8946
皙	-15.8946
皰	-15.8946
盄	-15.8946
盝	-15.8946
瞠	-15.8946
瞡	-15.8946
砒	-15.8946
碈	-15.8946
禴	-15.8946
稷	-15.8946
窽	-15.8946
竤	-15.8946
箝	-15.8946
篏	-15.8946
篤	-15.8946
糉	-15.8946
糠	-15.8946
紁	-15.8946
紕	-15.8946
絙	-15.8946
縩	-15.8946
绦	-15.8946
罔	-15.8946
耘	-15.8946
胫	-15.8946
腆	-15.8946
腚	-15.8946
芫	-15.8946
苂	-15.8946
苤	-15.8946
荚	-15.8946
薙	-15.8946
薹	-15.8946
藁	-15.8946
藜	-15.8946
螈	-15.8946
蠍	-15.8946
覷	-15.8946
諛	-15.8946
諦	-15.8946
譙	-15.8946
诃	-15.8946
谄	-15.8946
谲	-15.8946
谳	-15.8946
豔	-15.8946
赅	-15.8946
赈	-15.8946
軠	-15.8946
輟	-15.8946
輾	-15.8946
遼	-15.8946
郞	-15.8946
鈾	-15.8946
鋅	-15.8946
鏖	-15.8946
鑭	-15.8946
钚	-15.8946
铯	-15.8946
鞣	-15.8946
饨	-15.8946
駝	-15.8946
驍	-15.8946
驷	-15.8946
鱸	-15.8946
鳃	-15.8946
鳶	-15.8946
鴛	-15.8946
鴦	-15.8946
鵡	-15.8946
鵲	-15.8946
鷗	-15.8946
鸚	-15.8946
麂	-15.8946
黱	-15.8946
龋	-15.8946
	-15.8946
	-15.8946
	-15.8946
	-15.8946
	-15.8946
	-15.8946
	-15.8946
	-15.8946
	-15.8946
	-15.8946
	-15.8946
	-15.8946
	-15.8946
寅	-15.8946
劊	-15.8946
吖	-15.8946
愕	-15.8946
椿	-15.8946
溴	-15.8946
濱	-15.8946
獴	-15.8946
舐	-15.8946
蜘	-15.8946
賒	-15.8946
鉑	-15.8946
镐	-15.8946
餒	-15.8946
髖	-15.8946
鲭	-15.8946
鹼	-15.8946
ö	-15.8946
♫	-15.8946
剜	-15.8946
呓	-15.8946
坯	-15.8946
壬	-15.8946
懿	-15.8946
抿	-15.8946
搥	-15.8946
斓	-15.8946
杷	-15.8946
桁	-15.8946
桉	-15.8946
椽	-15.8946
渲	-15.8946
甀	-15.8946
甃	-15.8946
瘡	-15.8946
瞟	-15.8946
硐	-15.8946
糨	-15.8946
縡	-15.8946
绶	-15.8946
缛	-15.8946
藹	-15.8946
蹺	-15.8946
钹	-15.8946
閂	-15.8946
隴	-15.8946
鲔	-15.8946
	-15.8946
	-15.8946
¡	-15.8946
Ð	-15.8946
Õ	-15.8946
╋	-15.8946
╲	-15.8946
厝	-15.8946
崋	-15.8946
愴	-15.8946
慿	-15.8946
捫	-15.8946
槐	-15.8946
涓	-15.8946
炵	-15.8946
猠	-15.8946
琗	-15.8946
瓆	-15.8946
瘢	-15.8946
癩	-15.8946
碝	-15.8946
篅	-15.8946
篴	-15.8946
籩	-15.8946
舘	-15.8946
骊	-15.8946
鹃	-15.8946
	-15.8946
	-15.8946
	-15.8946
	-15.8946
ා	-15.8946
ේ	-15.8946
イ	-15.8946
牝	-15.8946
璊	-15.8946
稩	-15.8946
	-15.8946
琡	-15.8946
	-15.8946
▲	-16.3946
ㄍ	-16.3946
睱	-16.3946
	-16.3946
埜	-16.3946
昜	-16.3946
	-16.3946
沱	-16.3946
滂	-16.3946
燧	-16.3946
詆	-16.3946
	-16.3946
	-16.3946
晟	-16.3946
齧	-16.3946
б	-16.3946
↖	-16.3946
┸	-16.3946
え	-16.3946
ほ	-16.3946
垀	-16.3946
崠	-16.3946
揖	-16.3946
玭	-16.3946
玶	-16.3946
疉	-16.3946
矰	-16.3946
砉	-16.3946
硊	-16.3946
硔	-16.3946
碠	-16.3946
磞	-16.3946
礘	-16.3946
礢	-16.3946
粁	-16.3946
絯	-16.3946
芧	-16.3946
苙	-16.3946
軑	-16.3946
軗	-16.3946
铊	-16.3946
铌	-16.3946
铮	-16.3946
駙	-16.3946
	-16.3946
	-16.3946
擷	-16.3946
	-16.3946
>	-16.3946
Ш	-16.3946
⁄	-16.3946
ラ	-16.3946
丕	-16.3946
仃	-16.3946
倜	-16.3946
冽	-16.3946
啫	-16.3946
嗫	-16.3946
嘬	-16.3946
囫	-16.3946
囵	-16.3946
垦	-16.3946
埂	-16.3946
婌	-16.3946
嬡	-16.3946
忖	-16.3946
恛	-16.3946
挝	-16.3946
曇	-16.3946
曖	-16.3946
滌	-16.3946
澀	-16.3946
獼	-16.3946
珋	-16.3946
珥	-16.3946
睳	-16.3946
砥	-16.3946
碮	-16.3946
礜	-16.3946
稟	-16.3946
笙	-16.3946
筍	-16.3946
筵	-16.3946
糯	-16.3946
腲	-16.3946
芡	-16.3946
苄	-16.3946
苣	-16.3946
莴	-16.3946
菖	-16.3946
虳	-16.3946
螻	-16.3946
覲	-16.3946
誦	-16.3946
讦	-16.3946
讫	-16.3946
谯	-16.3946
跫	-16.3946
踊	-16.3946
躪	-16.3946
鎯	-16.3946
鐐	-16.3946
铵	-16.3946
铹	-16.3946
髻	-16.3946
鱒	-16.3946
麒	-16.3946
麓	-16.3946
齉	-16.3946
	-16.3946
	-16.3946
甁	-16.3946
笫	-16.3946
聼	-16.3946
茹	-16.3946
葚	-16.3946
谂	-16.3946
跩	-16.3946
	-16.3946
<	-16.3946
Å	-16.3946
Ø	-16.3946
ŧ	-16.3946
ǖ	-16.3946
Ι	-16.3946
Б	-16.3946
Д	-16.3946
И	-16.3946
Р	-16.3946
г	-16.3946
й	-16.3946
ф	-16.3946
ආ	-16.3946
ජ	-16.3946
බ	-16.3946
ෝ	-16.3946
๛	-16.3946
≧	-16.3946
╄	-16.3946
╟	-16.3946
◆	-16.3946
ぷ	-16.3946
ろ	-16.3946
ん	-16.3946
ァ	-16.3946
ベ	-16.3946
ボ	-16.3946
ヶ	-16.3946
ㄌ	-16.3946
ㄐ	-16.3946
伉	-16.3946
佇	-16.3946
佗	-16.3946
佟	-16.3946
俀	-16.3946
俎	-16.3946
俨	-16.3946
俴	-16.3946
偈	-16.3946
冪	-16.3946
劵	-16.3946
勍	-16.3946
卟	-16.3946
叱	-16.3946
吡	-16.3946
吤	-16.3946
呡	-16.3946
呯	-16.3946
呿	-16.3946
哌	-16.3946
啷	-16.3946
喯	-16.3946
嗇	-16.3946
嗉	-16.3946
嗞	-16.3946
嘖	-16.3946
噤	-16.3946
噫	-16.3946
坢	-16.3946
塾	-16.3946
姝	-16.3946
姪	-16.3946
娈	-16.3946
婀	-16.3946
嬛	-16.3946
孖	-16.3946
孱	-16.3946
尙	-16.3946
岀	-16.3946
巔	-16.3946
幀	-16.3946
怅	-16.3946
恫	-16.3946
慟	-16.3946
懨	-16.3946
戌	-16.3946
捩	-16.3946
掇	-16.3946
掟	-16.3946
揄	-16.3946
揶	-16.3946
揹	-16.3946
摀	-16.3946
擄	-16.3946
擘	-16.3946
攆	-16.3946
攘	-16.3946
攢	-16.3946
昇	-16.3946
暍	-16.3946
栀	-16.3946
栄	-16.3946
棫	-16.3946
櫝	-16.3946
汨	-16.3946
泾	-16.3946
洷	-16.3946
涧	-16.3946
淏	-16.3946
渭	-16.3946
漪	-16.3946
濛	-16.3946
灏	-16.3946
烨	-16.3946
煨	-16.3946
狵	-16.3946
獭	-16.3946
玁	-16.3946
玨	-16.3946
玳	-16.3946
瑁	-16.3946
瑌	-16.3946
璾	-16.3946
瓸	-16.3946
甌	-16.3946
畖	-16.3946
疨	-16.3946
痁	-16.3946
瘍	-16.3946
皌	-16.3946
眡	-16.3946
睴	-16.3946
瞯	-16.3946
瞼	-16.3946
砷	-16.3946
砺	-16.3946
硒	-16.3946
硚	-16.3946
硼	-16.3946
碒	-16.3946
碔	-16.3946
碯	-16.3946
碽	-16.3946
磃	-16.3946
磣	-16.3946
礗	-16.3946
礴	-16.3946
祚	-16.3946
祼	-16.3946
秙	-16.3946
秣	-16.3946
秧	-16.3946
稭	-16.3946
稴	-16.3946
稸	-16.3946
穒	-16.3946
穸	-16.3946
窸	-16.3946
笘	-16.3946
笝	-16.3946
笢	-16.3946
笱	-16.3946
筢	-16.3946
簷	-16.3946
籟	-16.3946
籵	-16.3946
籽	-16.3946
糱	-16.3946
糽	-16.3946
紌	-16.3946
絩	-16.3946
綝	-16.3946
綞	-16.3946
緇	-16.3946
縟	-16.3946
縸	-16.3946
纍	-16.3946
纐	-16.3946
纔	-16.3946
缢	-16.3946
缨	-16.3946
羮	-16.3946
翌	-16.3946
耒	-16.3946
聈	-16.3946
肂	-16.3946
胴	-16.3946
腱	-16.3946
腶	-16.3946
腼	-16.3946
臖	-16.3946
舃	-16.3946
舥	-16.3946
芞	-16.3946
苇	-16.3946
苝	-16.3946
苷	-16.3946
荀	-16.3946
荽	-16.3946
莒	-16.3946
菝	-16.3946
萄	-16.3946
萘	-16.3946
萡	-16.3946
萵	-16.3946
葺	-16.3946
蒿	-16.3946
蓦	-16.3946
蓼	-16.3946
蔖	-16.3946
蘖	-16.3946
蘼	-16.3946
虻	-16.3946
蚚	-16.3946
蛌	-16.3946
蛻	-16.3946
螯	-16.3946
蟄	-16.3946
蟬	-16.3946
蠔	-16.3946
裎	-16.3946
褔	-16.3946
褛	-16.3946
褴	-16.3946
訥	-16.3946
詡	-16.3946
詮	-16.3946
詻	-16.3946
誑	-16.3946
誥	-16.3946
諂	-16.3946
諱	-16.3946
謐	-16.3946
譚	-16.3946
豸	-16.3946
贍	-16.3946
蹴	-16.3946
躉	-16.3946
躓	-16.3946
躡	-16.3946
軋	-16.3946
轶	-16.3946
辕	-16.3946
迉	-16.3946
迕	-16.3946
逖	-16.3946
逡	-16.3946
酞	-16.3946
錐	-16.3946
鎧	-16.3946
鏦	-16.3946
鐺	-16.3946
鑷	-16.3946
钍	-16.3946
钒	-16.3946
铳	-16.3946
锒	-16.3946
锺	-16.3946
闢	-16.3946
雉	-16.3946
頜	-16.3946
颼	-16.3946
餃	-16.3946
餿	-16.3946
饞	-16.3946
饫	-16.3946
饽	-16.3946
馕	-16.3946
馥	-16.3946
騁	-16.3946
驒	-16.3946
驩	-16.3946
骛	-16.3946
骠	-16.3946
鬃	-16.3946
鬚	-16.3946
鮆	-16.3946
鳅	-16.3946
鳎	-16.3946
鴷	-16.3946
鶩	-16.3946
鷲	-16.3946
鹭	-16.3946
鹹	-16.3946
麝	-16.3946
鼴	-16.3946
	-16.3946
	-16.3946
	-16.3946
	-16.3946
	-16.3946
	-16.3946
	-16.3946
	-16.3946
	-16.3946
	-16.3946
	-16.3946
	-16.3946
	-16.3946
	-16.3946
	-16.3946
	-16.3946
	-16.3946
	-16.3946
	-16.3946
	-16.3946
	-16.3946
	-16.3946
	-16.3946
	-16.3946
	-16.3946
	-16.3946
	-16.3946
	-16.3946
ḥ	-16.3946
巍	-16.3946
怩	-16.3946
殁	-16.3946
粕	-16.3946
耆	-16.3946
脄	-16.3946
蠶	-16.3946
衲	-16.3946
诹	-16.3946
谒	-16.3946
跖	-16.3946
蹓	-16.3946
迳	-16.3946
铨	-16.3946
靖	-16.3946
餾	-16.3946
駱	-16.3946
鯰	-16.3946
鵬	-16.3946
å	-16.3946
ð	-16.3946
ˇ	-16.3946
Π	-16.3946
┾	-16.3946
╝	-16.3946
伕	-16.3946
圜	-16.3946
堇	-16.3946
屐	-16.3946
忸	-16.3946
晩	-16.3946
殲	-16.3946
玑	-16.3946
疎	-16.3946
痲	-16.3946
皎	-16.3946
睑	-16.3946
瞓	-16.3946
砩	-16.3946
礨	-16.3946
篒	-16.3946
綫	-16.3946
繹	-16.3946
罡	-16.3946
聒	-16.3946
脣	-16.3946
蛲	-16.3946
諮	-16.3946
诘	-16.3946
诛	-16.3946
锑	-16.3946
頤	-16.3946
鹳	-16.3946
	-16.3946
	-16.3946
屙	-16.3946
岘	-16.3946
Â	-16.3946
サ	-16.3946
侚	-16.3946
卅	-16.3946
峈	-16.3946
朸	-16.3946
瀰	-16.3946
炷	-16.3946
猐	-16.3946
眅	-16.3946
硁	-16.3946
磖	-16.3946
秎	-16.3946
筳	-16.3946
篘	-16.3946
粝	-16.3946
脺	-16.3946
腁	-16.3946
腢	-16.3946
菅	-16.3946
鏘	-16.3946
阰	-16.3946
陬	-16.3946
	-16.3946
	-16.3946
	-16.3946
翷	-16.3946
颌	-16.3946
エ	-16.3946
睵	-16.3946
篖	-16.3946
茩	-16.3946
磯	-17.3918
嗽	-17.3919
髅	-17.392
骷	-17.3921
氓	-17.3923
̅	-17.3923
	-17.3925
烬	-17.3925
飓	-17.3926
闆	-17.3927
晰	-17.3928
慷	-17.393
屉	-17.393
犧	-17.3932
ى	-17.3932
紹	-17.3933
蘑	-17.3934
؟	-17.3935
詛	-17.3937
忏	-17.3937
厦	-17.3939
饪	-17.3939
秩	-17.394
肮	-17.3941
榄	-17.3942
蝙	-17.3944
稣	-17.3944
ㄞ	-17.3945
呴	-17.3945
晞	-17.3945
梑	-17.3945
牺	-17.3946
镞	-17.3946
诅	-17.3946
Σ	-17.3946
ハ	-17.3946
亙	-17.3946
囥	-17.3946
怵	-17.3946
悝	-17.3946
枒	-17.3946
楮	-17.3946
浙	-17.3946
燻	-17.3946
璍	-17.3946
皾	-17.3946
睤	-17.3946
砵	-17.3946
禯	-17.3946
稔	-17.3946
紓	-17.3946
繵	-17.3946
翺	-17.3946
肕	-17.3946
腷	-17.3946
袈	-17.3946
裟	-17.3946
迖	-17.3946
逵	-17.3946
镌	-17.3946
騵	-17.3946
魘	-17.3946
鱘	-17.3946
	-17.3946
	-17.3946
	-17.3946
	-17.3946
	-17.3946
	-17.3946
阱	-17.3946
É	-17.3946
⌒	-17.3946
═	-17.3946
ヮ	-17.3946
ヵ	-17.3946
佞	-17.3946
俙	-17.3946
倢	-17.3946
儻	-17.3946
嚅	-17.3946
嚕	-17.3946
媂	-17.3946
屾	-17.3946
扱	-17.3946
挻	-17.3946
挼	-17.3946
捺	-17.3946
搛	-17.3946
撃	-17.3946
敔	-17.3946
晖	-17.3946
楓	-17.3946
槁	-17.3946
槿	-17.3946
橦	-17.3946
泭	-17.3946
烽	-17.3946
犠	-17.3946
猒	-17.3946
畦	-17.3946
県	-17.3946
砦	-17.3946
窨	-17.3946
窪	-17.3946
竽	-17.3946
粣	-17.3946
紏	-17.3946
罈	-17.3946
罎	-17.3946
罯	-17.3946
蘚	-17.3946
蜽	-17.3946
譎	-17.3946
诙	-17.3946
谵	-17.3946
踴	-17.3946
蹼	-17.3946
酉	-17.3946
醴	-17.3946
鍬	-17.3946
鎂	-17.3946
闔	-17.3946
靳	-17.3946
餉	-17.3946
鲢	-17.3946
鲲	-17.3946
	-17.3946
	-17.3946
	-17.3946
Ё	-17.3946
婼	-17.3946
嵇	-17.3946
桜	-17.3946
犰	-17.3946
蒋	-17.3946
蒳	-17.3946
駉	-17.3946
駟	-17.3946
黔	-17.3946
±	-17.3946
Á	-17.3946
Ò	-17.3946
Ó	-17.3946
Ô	-17.3946
æ	-17.3946
ù	-17.3946
ŗ	-17.3946
ǜ	-17.3946
Ξ	-17.3946
Φ	-17.3946
β	-17.3946
η	-17.3946
λ	-17.3946
ο	-17.3946
З	-17.3946
Щ	-17.3946
н	-17.3946
о	-17.3946
ш	-17.3946
න	-17.3946
්	-17.3946
ි	-17.3946
ු	-17.3946
๎	-17.3946
๏	-17.3946
ᶁ	-17.3946
‭	-17.3946
€	-17.3946
∙	-17.3946
┛	-17.3946
╈	-17.3946
╊	-17.3946
║	-17.3946
╢	-17.3946
╩	-17.3946
╮	-17.3946
▄	-17.3946
う	-17.3946
く	-17.3946
に	-17.3946
ば	-17.3946
む	-17.3946
゚	-17.3946
ソ	-17.3946
ヒ	-17.3946
ビ	-17.3946
プ	-17.3946
ペ	-17.3946
ー	-17.3946
ヽ	-17.3946
ㄥ	-17.3946
丂	-17.3946
乩	-17.3946
乸	-17.3946
亓	-17.3946
仞	-17.3946
仟	-17.3946
佘	-17.3946
佧	-17.3946
佷	-17.3946
侇	-17.3946
俪	-17.3946
俶	-17.3946
倀	-17.3946
傚	-17.3946
傣	-17.3946
傥	-17.3946
傧	-17.3946
儉	-17.3946
儷	-17.3946
刓	-17.3946
剟	-17.3946
剮	-17.3946
勛	-17.3946
匱	-17.3946
吔	-17.3946
呑	-17.3946
呒	-17.3946
呾	-17.3946
咂	-17.3946
咘	-17.3946
咹	-17.3946
唒	-17.3946
唩	-17.3946
唰	-17.3946
啉	-17.3946
喎	-17.3946
嗐	-17.3946
嗟	-17.3946
嗥	-17.3946
嗳	-17.3946
嘜	-17.3946
嘹	-17.3946
噥	-17.3946
噻	-17.3946
嚁	-17.3946
嚶	-17.3946
囪	-17.3946
囷	-17.3946
圉	-17.3946
坋	-17.3946
坔	-17.3946
垡	-17.3946
埮	-17.3946
堀	-17.3946
墬	-17.3946
墾	-17.3946
夙	-17.3946
夼	-17.3946
奂	-17.3946
妤	-17.3946
娑	-17.3946
嫺	-17.3946
孳	-17.3946
孿	-17.3946
宎	-17.3946
宕	-17.3946
宦	-17.3946
寤	-17.3946
峋	-17.3946
峎	-17.3946
峒	-17.3946
峥	-17.3946
峦	-17.3946
峪	-17.3946
嵋	-17.3946
嵘	-17.3946
嶂	-17.3946
嶋	-17.3946
嶕	-17.3946
嶙	-17.3946
幂	-17.3946
幄	-17.3946
庈	-17.3946
庖	-17.3946
庣	-17.3946
廬	-17.3946
弅	-17.3946
弝	-17.3946
彳	-17.3946
彶	-17.3946
徳	-17.3946
忳	-17.3946
忻	-17.3946
怄	-17.3946
怔	-17.3946
怬	-17.3946
怼	-17.3946
恀	-17.3946
恅	-17.3946
恻	-17.3946
悽	-17.3946
惵	-17.3946
愆	-17.3946
愷	-17.3946
憚	-17.3946
戆	-17.3946
戽	-17.3946
扢	-17.3946
扥	-17.3946
扷	-17.3946
抅	-17.3946
抜	-17.3946
抩	-17.3946
挢	-17.3946
挶	-17.3946
掄	-17.3946
掬	-17.3946
掴	-17.3946
揀	-17.3946
撻	-17.3946
擀	-17.3946
擻	-17.3946
攙	-17.3946
攞	-17.3946
敁	-17.3946
旆	-17.3946
旍	-17.3946
旰	-17.3946
昤	-17.3946
昫	-17.3946
晏	-17.3946
晗	-17.3946
晷	-17.3946
暌	-17.3946
暸	-17.3946
曄	-17.3946
曽	-17.3946
朧	-17.3946
杈	-17.3946
枱	-17.3946
枴	-17.3946
柙	-17.3946
柡	-17.3946
栎	-17.3946
栳	-17.3946
桐	-17.3946
桡	-17.3946
桧	-17.3946
梜	-17.3946
棲	-17.3946
椋	-17.3946
椥	-17.3946
楂	-17.3946
檞	-17.3946
殂	-17.3946
殇	-17.3946
殚	-17.3946
殞	-17.3946
殯	-17.3946
毎	-17.3946
毽	-17.3946
氐	-17.3946
氖	-17.3946
氡	-17.3946
氬	-17.3946
汊	-17.3946
汔	-17.3946
汙	-17.3946
汶	-17.3946
沆	-17.3946
泐	-17.3946
洘	-17.3946
浜	-17.3946
涾	-17.3946
淂	-17.3946
淕	-17.3946
淦	-17.3946
渀	-17.3946
渑	-17.3946
渕	-17.3946
湄	-17.3946
溏	-17.3946
滦	-17.3946
漕	-17.3946
潟	-17.3946
潠	-17.3946
澹	-17.3946
濘	-17.3946
濯	-17.3946
瀉	-17.3946
瀨	-17.3946
瀾	-17.3946
炕	-17.3946
炰	-17.3946
烃	-17.3946
煥	-17.3946
煭	-17.3946
燔	-17.3946
燮	-17.3946
爰	-17.3946
牉	-17.3946
犟	-17.3946
犢	-17.3946
狆	-17.3946
狞	-17.3946
狳	-17.3946
猂	-17.3946
猑	-17.3946
猟	-17.3946
猤	-17.3946
猽	-17.3946
獏	-17.3946
獐	-17.3946
玃	-17.3946
玊	-17.3946
玌	-17.3946
玍	-17.3946
玜	-17.3946
玠	-17.3946
玪	-17.3946
玫	-17.3946
玴	-17.3946
玹	-17.3946
玼	-17.3946
珐	-17.3946
珺	-17.3946
珽	-17.3946
琋	-17.3946
琖	-17.3946
琠	-17.3946
琭	-17.3946
琺	-17.3946
瑄	-17.3946
瑆	-17.3946
瑯	-17.3946
瑼	-17.3946
璐	-17.3946
璝	-17.3946
瓃	-17.3946
瓿	-17.3946
産	-17.3946
甬	-17.3946
畃	-17.3946
畟	-17.3946
畲	-17.3946
疇	-17.3946
疐	-17.3946
疩	-17.3946
疪	-17.3946
疰	-17.3946
疶	-17.3946
痍	-17.3946
痑	-17.3946
痶	-17.3946
痸	-17.3946
癆	-17.3946
癑	-17.3946
癔	-17.3946
癜	-17.3946
癭	-17.3946
癴	-17.3946
癹	-17.3946
皲	-17.3946
盌	-17.3946
盚	-17.3946
眥	-17.3946
眫	-17.3946
眻	-17.3946
睝	-17.3946
睞	-17.3946
睪	-17.3946
睭	-17.3946
睺	-17.3946
瞁	-17.3946
瞈	-17.3946
瞛	-17.3946
瞺	-17.3946
矇	-17.3946
矧	-17.3946
砚	-17.3946
砱	-17.3946
砹	-17.3946
硌	-17.3946
硏	-17.3946
硷	-17.3946
碅	-17.3946
磏	-17.3946
磔	-17.3946
礥	-17.3946
礷	-17.3946
礿	-17.3946
祍	-17.3946
祿	-17.3946
禕	-17.3946
禘	-17.3946
禟	-17.3946
禤	-17.3946
禭	-17.3946
禺	-17.3946
秶	-17.3946
稧	-17.3946
稵	-17.3946
稶	-17.3946
稺	-17.3946
穡	-17.3946
竨	-17.3946
笭	-17.3946
筯	-17.3946
筱	-17.3946
箏	-17.3946
箐	-17.3946
箓	-17.3946
篆	-17.3946
篟	-17.3946
簁	-17.3946
簑	-17.3946
籈	-17.3946
籛	-17.3946
籲	-17.3946
籼	-17.3946
粱	-17.3946
糅	-17.3946
糐	-17.3946
糤	-17.3946
糥	-17.3946
糰	-17.3946
絘	-17.3946
絚	-17.3946
絜	-17.3946
絢	-17.3946
絫	-17.3946
絳	-17.3946
絴	-17.3946
絵	-17.3946
綟	-17.3946
綥	-17.3946
綰	-17.3946
綱	-17.3946
緐	-17.3946
緔	-17.3946
緖	-17.3946
締	-17.3946
緼	-17.3946
縣	-17.3946
縬	-17.3946
縴	-17.3946
縹	-17.3946
繒	-17.3946
繭	-17.3946
纀	-17.3946
纓	-17.3946
纗	-17.3946
纡	-17.3946
纭	-17.3946
纾	-17.3946
绥	-17.3946
绫	-17.3946
绺	-17.3946
缷	-17.3946
罿	-17.3946
羇	-17.3946
羉	-17.3946
羱	-17.3946
翤	-17.3946
耎	-17.3946
耟	-17.3946
耣	-17.3946
耦	-17.3946
聂	-17.3946
聄	-17.3946
聩	-17.3946
肄	-17.3946
肐	-17.3946
肸	-17.3946
胕	-17.3946
胭	-17.3946
脋	-17.3946
脕	-17.3946
腭	-17.3946
膒	-17.3946
膫	-17.3946
臦	-17.3946
臷	-17.3946
舋	-17.3946
舮	-17.3946
艉	-17.3946
艼	-17.3946
芎	-17.3946
芣	-17.3946
芨	-17.3946
芩	-17.3946
芺	-17.3946
苜	-17.3946
荃	-17.3946
荎	-17.3946
葷	-17.3946
蒓	-17.3946
蓂	-17.3946
蓿	-17.3946
薏	-17.3946
薔	-17.3946
藷	-17.3946
蘆	-17.3946
蚐	-17.3946
蚜	-17.3946
蛅	-17.3946
蛴	-17.3946
蝈	-17.3946
蝥	-17.3946
蝮	-17.3946
蝼	-17.3946
螨	-17.3946
螬	-17.3946
螽	-17.3946
蟈	-17.3946
蟊	-17.3946
蠃	-17.3946
蠛	-17.3946
蠣	-17.3946
蠹	-17.3946
衿	-17.3946
袁	-17.3946
袂	-17.3946
袧	-17.3946
裨	-17.3946
褡	-17.3946
褵	-17.3946
襞	-17.3946
覂	-17.3946
覓	-17.3946
訐	-17.3946
詣	-17.3946
詫	-17.3946
諤	-17.3946
诓	-17.3946
诟	-17.3946
诿	-17.3946
谑	-17.3946
谗	-17.3946
谟	-17.3946
豢	-17.3946
貍	-17.3946
貲	-17.3946
貳	-17.3946
賃	-17.3946
赭	-17.3946
趺	-17.3946
跗	-17.3946
跬	-17.3946
踉	-17.3946
踎	-17.3946
踡	-17.3946
踭	-17.3946
踮	-17.3946
躋	-17.3946
軒	-17.3946
軼	-17.3946
軾	-17.3946
輊	-17.3946
輒	-17.3946
輦	-17.3946
轄	-17.3946
轱	-17.3946
轳	-17.3946
迵	-17.3946
迼	-17.3946
迾	-17.3946
逄	-17.3946
逕	-17.3946
遽	-17.3946
邇	-17.3946
邑	-17.3946
邹	-17.3946
郅	-17.3946
鄊	-17.3946
酃	-17.3946
酐	-17.3946
酰	-17.3946
醰	-17.3946
釉	-17.3946
釐	-17.3946
釱	-17.3946
釷	-17.3946
鈎	-17.3946
鉖	-17.3946
鉚	-17.3946
鉻	-17.3946
銶	-17.3946
鋌	-17.3946
鋤	-17.3946
鋯	-17.3946
鋰	-17.3946
鍍	-17.3946
鍚	-17.3946
鑀	-17.3946
鑲	-17.3946
钊	-17.3946
钌	-17.3946
钎	-17.3946
钕	-17.3946
钜	-17.3946
钨	-17.3946
铄	-17.3946
铉	-17.3946
铏	-17.3946
铕	-17.3946
铙	-17.3946
铟	-17.3946
铡	-17.3946
铢	-17.3946
铼	-17.3946
锃	-17.3946
锇	-17.3946
锏	-17.3946
锗	-17.3946
锱	-17.3946
锾	-17.3946
镅	-17.3946
镎	-17.3946
镏	-17.3946
镓	-17.3946
镗	-17.3946
镧	-17.3946
閡	-17.3946
閾	-17.3946
阄	-17.3946
阋	-17.3946
阨	-17.3946
陓	-17.3946
陲	-17.3946
隽	-17.3946
雍	-17.3946
雯	-17.3946
靥	-17.3946
靨	-17.3946
韃	-17.3946
韜	-17.3946
韭	-17.3946
韶	-17.3946
顑	-17.3946
颏	-17.3946
飨	-17.3946
餚	-17.3946
饅	-17.3946
饗	-17.3946
馗	-17.3946
駒	-17.3946
駡	-17.3946
驀	-17.3946
驿	-17.3946
骝	-17.3946
骧	-17.3946
骱	-17.3946
髂	-17.3946
髇	-17.3946
髎	-17.3946
鬟	-17.3946
魟	-17.3946
鯖	-17.3946
鰲	-17.3946
鱈	-17.3946
鱔	-17.3946
鲫	-17.3946
鲯	-17.3946
鳌	-17.3946
鳜	-17.3946
鴃	-17.3946
鴇	-17.3946
鴕	-17.3946
鴞	-17.3946
鵰	-17.3946
鶇	-17.3946
鶯	-17.3946
鸝	-17.3946
鸢	-17.3946
鸸	-17.3946
鸹	-17.3946
鸾	-17.3946
鹈	-17.3946
鹋	-17.3946
鹕	-17.3946
鹩	-17.3946
鹪	-17.3946
鹵	-17.3946
鼩	-17.3946
齁	-17.3946
齑	-17.3946
龕	-17.3946
	-17.3946
	-17.3946
	-17.3946
	-17.3946
	-17.3946
	-17.3946
	-17.3946
	-17.3946
	-17.3946
	-17.3946
	-17.3946
	-17.3946
	-17.3946
	-17.3946
	-17.3946
	-17.3946
	-17.3946
	-17.3946
	-17.3946
	-17.3946
	-17.3946
	-17.3946
	-17.3946
	-17.3946
	-17.3946
	-17.3946
	-17.3946
	-17.3946
	-17.3946
	-17.3946
	-17.3946
	-17.3946
	-17.3946
	-17.3946
	-17.3946
	-17.3946
	-17.3946
	-17.3946
	-17.3946
	-17.3946
	-17.3946
	-17.3946
	-17.3946
	-17.3946
	-17.3946
	-17.3946
	-17.3946
	-17.3946
	-17.3946
	-17.3946
	-17.3946
	-17.3946
	-17.3946
	-17.3946
	-17.3946
	-17.3946
	-17.3946
	-17.3946
	-17.3946
	-17.3946
	-17.3946
	-17.3946
	-17.3946
	-17.3946
	-17.3946
	-17.3946
	-17.3946
奁	-17.3946
抺	-17.3946
揿	-17.3946
満	-17.3946
玧	-17.3946
畳	-17.3946
葜	-17.3946
蒃	-17.3946
蟳	-17.3946
踫	-17.3946
逑	-17.3946
錒	-17.3946
鎳	-17.3946
镛	-17.3946
鬈	-17.3946
鹞	-17.3946
尴	-17.3946
ぽ	-17.3946
ㄦ	-17.3946
劄	-17.3946
呤	-17.3946
咛	-17.3946
坩	-17.3946
埚	-17.3946
嶽	-17.3946
帛	-17.3946
悌	-17.3946
柃	-17.3946
柛	-17.3946
狰	-17.3946
猕	-17.3946
玺	-17.3946
畀	-17.3946
畚	-17.3946
皋	-17.3946
瞇	-17.3946
矾	-17.3946
箕	-17.3946
糴	-17.3946
絊	-17.3946
纒	-17.3946
纘	-17.3946
胄	-17.3946
芊	-17.3946
菏	-17.3946
虷	-17.3946
蝸	-17.3946
邰	-17.3946
郤	-17.3946
鉸	-17.3946
鍥	-17.3946
镉	-17.3946
阡	-17.3946
雛	-17.3946
鲠	-17.3946
鴟	-17.3946
	-17.3946
	-17.3946
	-17.3946
	-17.3946
Ù	-17.3946
┗	-17.3946
╱	-17.3946
▇	-17.3946
侪	-17.3946
堎	-17.3946
岍	-17.3946
槨	-17.3946
澙	-17.3946
瀣	-17.3946
瑷	-17.3946
綬	-17.3946
纕	-17.3946
薑	-17.3946
跦	-17.3946
躦	-17.3946
鈽	-17.3946
馑	-17.3946
鰭	-17.3946
	-17.3946
	-17.3946
	-17.3946
	-17.3946
	-17.3946
	-17.3946
	-17.3946
	-17.3946
┘	-17.3946
壟	-17.3946
拯	-17.3946
璼	-17.3946
醣	-17.3946
